[PAD]	0
[UNK]	0
[BOS]	0
[EOS]	0
--	0
—	0
...	0
«	0
»	0
!..	0
?..	0
?!	0
<0x00>	0
<0x01>	0
<0x02>	0
<0x03>	0
<0x04>	0
<0x05>	0
<0x06>	0
<0x07>	0
<0x08>	0
<0x09>	0
<0x0A>	0
<0x0B>	0
<0x0C>	0
<0x0D>	0
<0x0E>	0
<0x0F>	0
<0x10>	0
<0x11>	0
<0x12>	0
<0x13>	0
<0x14>	0
<0x15>	0
<0x16>	0
<0x17>	0
<0x18>	0
<0x19>	0
<0x1A>	0
<0x1B>	0
<0x1C>	0
<0x1D>	0
<0x1E>	0
<0x1F>	0
<0x20>	0
<0x21>	0
<0x22>	0
<0x23>	0
<0x24>	0
<0x25>	0
<0x26>	0
<0x27>	0
<0x28>	0
<0x29>	0
<0x2A>	0
<0x2B>	0
<0x2C>	0
<0x2D>	0
<0x2E>	0
<0x2F>	0
<0x30>	0
<0x31>	0
<0x32>	0
<0x33>	0
<0x34>	0
<0x35>	0
<0x36>	0
<0x37>	0
<0x38>	0
<0x39>	0
<0x3A>	0
<0x3B>	0
<0x3C>	0
<0x3D>	0
<0x3E>	0
<0x3F>	0
<0x40>	0
<0x41>	0
<0x42>	0
<0x43>	0
<0x44>	0
<0x45>	0
<0x46>	0
<0x47>	0
<0x48>	0
<0x49>	0
<0x4A>	0
<0x4B>	0
<0x4C>	0
<0x4D>	0
<0x4E>	0
<0x4F>	0
<0x50>	0
<0x51>	0
<0x52>	0
<0x53>	0
<0x54>	0
<0x55>	0
<0x56>	0
<0x57>	0
<0x58>	0
<0x59>	0
<0x5A>	0
<0x5B>	0
<0x5C>	0
<0x5D>	0
<0x5E>	0
<0x5F>	0
<0x60>	0
<0x61>	0
<0x62>	0
<0x63>	0
<0x64>	0
<0x65>	0
<0x66>	0
<0x67>	0
<0x68>	0
<0x69>	0
<0x6A>	0
<0x6B>	0
<0x6C>	0
<0x6D>	0
<0x6E>	0
<0x6F>	0
<0x70>	0
<0x71>	0
<0x72>	0
<0x73>	0
<0x74>	0
<0x75>	0
<0x76>	0
<0x77>	0
<0x78>	0
<0x79>	0
<0x7A>	0
<0x7B>	0
<0x7C>	0
<0x7D>	0
<0x7E>	0
<0x7F>	0
<0x80>	0
<0x81>	0
<0x82>	0
<0x83>	0
<0x84>	0
<0x85>	0
<0x86>	0
<0x87>	0
<0x88>	0
<0x89>	0
<0x8A>	0
<0x8B>	0
<0x8C>	0
<0x8D>	0
<0x8E>	0
<0x8F>	0
<0x90>	0
<0x91>	0
<0x92>	0
<0x93>	0
<0x94>	0
<0x95>	0
<0x96>	0
<0x97>	0
<0x98>	0
<0x99>	0
<0x9A>	0
<0x9B>	0
<0x9C>	0
<0x9D>	0
<0x9E>	0
<0x9F>	0
<0xA0>	0
<0xA1>	0
<0xA2>	0
<0xA3>	0
<0xA4>	0
<0xA5>	0
<0xA6>	0
<0xA7>	0
<0xA8>	0
<0xA9>	0
<0xAA>	0
<0xAB>	0
<0xAC>	0
<0xAD>	0
<0xAE>	0
<0xAF>	0
<0xB0>	0
<0xB1>	0
<0xB2>	0
<0xB3>	0
<0xB4>	0
<0xB5>	0
<0xB6>	0
<0xB7>	0
<0xB8>	0
<0xB9>	0
<0xBA>	0
<0xBB>	0
<0xBC>	0
<0xBD>	0
<0xBE>	0
<0xBF>	0
<0xC0>	0
<0xC1>	0
<0xC2>	0
<0xC3>	0
<0xC4>	0
<0xC5>	0
<0xC6>	0
<0xC7>	0
<0xC8>	0
<0xC9>	0
<0xCA>	0
<0xCB>	0
<0xCC>	0
<0xCD>	0
<0xCE>	0
<0xCF>	0
<0xD0>	0
<0xD1>	0
<0xD2>	0
<0xD3>	0
<0xD4>	0
<0xD5>	0
<0xD6>	0
<0xD7>	0
<0xD8>	0
<0xD9>	0
<0xDA>	0
<0xDB>	0
<0xDC>	0
<0xDD>	0
<0xDE>	0
<0xDF>	0
<0xE0>	0
<0xE1>	0
<0xE2>	0
<0xE3>	0
<0xE4>	0
<0xE5>	0
<0xE6>	0
<0xE7>	0
<0xE8>	0
<0xE9>	0
<0xEA>	0
<0xEB>	0
<0xEC>	0
<0xED>	0
<0xEE>	0
<0xEF>	0
<0xF0>	0
<0xF1>	0
<0xF2>	0
<0xF3>	0
<0xF4>	0
<0xF5>	0
<0xF6>	0
<0xF7>	0
<0xF8>	0
<0xF9>	0
<0xFA>	0
<0xFB>	0
<0xFC>	0
<0xFD>	0
<0xFE>	0
<0xFF>	0
▁п	-0
▁с	-1
▁н	-2
▁в	-3
то	-4
▁и	-5
▁о	-6
но	-7
ра	-8
ст	-9
ко	-10
ро	-11
ен	-12
▁по	-13
ал	-14
го	-15
▁д	-16
ка	-17
▁м	-18
ре	-19
▁не	-20
▁на	-21
ли	-22
▁б	-23
ла	-24
ть	-25
ло	-26
ри	-27
▁т	-28
ет	-29
ни	-30
во	-31
▁з	-32
▁ч	-33
на	-34
▁у	-35
ва	-36
ся	-37
ны	-38
ер	-39
ль	-40
ки	-41
ем	-42
да	-43
▁-	-44
сь	-45
▁за	-46
▁к	-47
ле	-48
ру	-49
▁е	-50
▁ко	-51
те	-52
ми	-53
ти	-54
ди	-55
ви	-56
▁что	-57
ну	-58
не	-59
же	-60
▁ра	-61
та	-62
де	-63
▁ка	-64
ени	-65
▁В	-66
▁бы	-67
▁э	-68
хо	-69
▁про	-70
до	-71
▁то	-72
▁Н	-73
▁от	-74
мо	-75
▁во	-76
▁со	-77
▁П	-78
▁до	-79
ве	-80
▁при	-81
ля	-82
▁С	-83
се	-84
ма	-85
▁мо	-86
чи	-87
▁г	-88
▁я	-89
жи	-90
▁а	-91
бо	-92
ши	-93
по	-94
ку	-95
▁та	-96
▁О	-97
▁го	-98
ры	-99
▁это	-100
▁вы	-101
ше	-102
че	-103
▁К	-104
▁А	-105
али	-106
ала	-107
▁И	-108
▁М	-109
▁об	-110
▁"	-111
ду	-112
си	-113
сто	-114
▁но	-115
ере	-116
сти	-117
лу	-118
за	-119
▁Т	-120
ста	-121
ча	-122
▁из	-123
лю	-124
▁Д	-125
ной	-126
сть	-127
▁ни	-128
▁как	-129
ме	-130
му	-131
ня	-132
ско	-133
ей	-134
▁все	-135
га	-136
▁раз	-137
со	-138
▁те	-139
▁ст	-140
▁сво	-141
▁бо	-142
▁он	-143
ще	-144
щи	-145
вы	-146
ря	-147
ного	-148
аль	-149
ги	-150
ци	-151
▁под	-152
ный	-153
гда	-154
па	-155
▁его	-156
бе	-157
▁хо	-158
ву	-159
пи	-160
▁По	-161
тель	-162
ски	-163
▁де	-164
▁же	-165
лся	-166
вер	-167
ень	-168
ться	-169
би	-170
са	-171
▁пре	-172
▁Б	-173
ные	-174
▁се	-175
▁Я	-176
ты	-177
ало	-178
▁ве	-179
▁ли	-180
▁да	-181
ша	-182
▁ре	-183
лько	-184
шь	-185
▁са	-186
енно	-187
бы	-188
лы	-189
▁бе	-190
▁Р	-191
ту	-192
ения	-193
жа	-194
каз	-195
▁бу	-196
ных	-197
кой	-198
▁кото	-199
▁ме	-200
ды	-201
еня	-202
▁так	-203
вет	-204
▁пере	-205
це	-206
ется	-207
ют	-208
▁жи	-209
ение	-210
▁ма	-211
▁Г	-212
ца	-213
▁сто	-214
ему	-215
▁лю	-216
▁вс	-217
жно	-218
▁си	-219
▁Л	-220
▁ф	-221
ке	-222
▁ру	-223
▁З	-224
▁На	-225
▁было	-226
ство	-227
пе	-228
бя	-229
▁меня	-230
мы	-231
▁ты	-232
▁(	-233
про	-234
▁ви	-235
▁пос	-236
вал	-237
▁па	-238
▁ми	-239
ным	-240
▁дру	-241
чно	-242
▁она	-243
рем	-244
▁мы	-245
▁ж	-246
ная	-247
▁рас	-248
лась	-249
▁че	-250
▁Но	-251
дь	-252
ак	-253
гу	-254
▁Е	-255
зи	-256
зо	-257
вать	-258
▁Э	-259
сли	-260
ба	-261
▁ста	-262
ха	-263
▁зна	-264
▁Ч	-265
▁ва	-266
вно	-267
▁мне	-268
пу	-269
дно	-270
▁ро	-271
ств	-272
▁У	-273
▁су	-274
▁Не	-275
▁ду	-276
ходи	-277
лет	-278
▁уже	-279
вши	-280
лове	-281
су	-282
ком	-283
▁только	-284
ние	-285
▁для	-286
ров	-287
▁ку	-288
▁воз	-289
▁х	-290
бу	-291
▁боль	-292
лись	-293
тся	-294
ния	-295
дя	-296
ков	-297
▁ле	-298
▁ш	-299
нов	-300
том	-301
▁Ко	-302
нь	-303
▁Во	-304
об	-305
▁был	-306
ром	-307
▁гла	-308
пра	-309
▁ис	-310
дет	-311
▁вз	-312
▁Да	-313
ное	-314
▁их	-315
мот	-316
ща	-317
лен	-318
▁врем	-319
тя	-320
ную	-321
зы	-322
▁они	-323
▁Он	-324
кры	-325
▁которы	-326
▁ту	-327
▁пред	-328
ска	-329
вори	-330
▁пра	-331
зна	-332
▁сло	-333
лось	-334
".	-335
вали	-336
мен	-337
▁пу	-338
▁ча	-339
▁челове	-340
зу	-341
тельно	-342
▁му	-343
вая	-344
жет	-345
вой	-346
▁голо	-347
нима	-348
▁Х	-349
мер	-350
он	-351
▁когда	-352
ран	-353
вля	-354
нул	-355
ющи	-356
ался	-357
вя	-358
ства	-359
▁чу	-360
сте	-361
▁ее	-362
▁свои	-363
сту	-364
▁жиз	-365
▁или	-366
пер	-367
дел	-368
▁од	-369
чу	-370
▁слу	-371
▁За	-372
ор	-373
сы	-374
▁Ма	-375
▁им	-376
▁ин	-377
гля	-378
▁после	-379
ном	-380
▁дол	-381
▁кон	-382
▁само	-383
▁нас	-384
▁еще	-385
▁чтобы	-386
▁Это	-387
ена	-388
алось	-389
спо	-390
▁всё	-391
▁Мо	-392
▁пи	-393
чески	-394
дин	-395
ник	-396
▁сказ	-397
алась	-398
стви	-399
▁Ка	-400
стро	-401
ской	-402
▁То	-403
шо	-404
▁ба	-405
",	-406
дом	-407
▁оста	-408
пы	-409
▁себя	-410
чень	-411
▁без	-412
▁даже	-413
гра	-414
стоя	-415
ции	-416
▁была	-417
▁кра	-418
▁Бо	-419
▁ему	-420
ствен	-421
▁пер	-422
▁рабо	-423
гла	-424
чь	-425
ными	-426
▁если	-427
сно	-428
стре	-429
▁вер	-430
▁стра	-431
▁есть	-432
хи	-433
кто	-434
▁время	-435
▁эти	-436
ешь	-437
▁прои	-438
кра	-439
▁обра	-440
шка	-441
▁тебя	-442
▁ус	-443
▁ну	-444
▁пла	-445
сси	-446
чего	-447
▁пол	-448
▁сле	-449
рой	-450
жд	-451
жен	-452
▁очень	-453
ского	-454
шу	-455
▁тем	-456
▁её	-457
кие	-458
але	-459
тому	-460
▁нач	-461
ск	-462
▁будет	-463
тно	-464
бра	-465
▁глаза	-466
фи	-467
▁него	-468
щё	-469
тов	-470
цы	-471
▁ком	-472
ней	-473
▁были	-474
▁где	-475
вает	-476
▁полу	-477
жу	-478
бой	-479
▁нет	-480
▁Ф	-481
каза	-482
▁говори	-483
▁просто	-484
▁пе	-485
дела	-486
мет	-487
▁кто	-488
сле	-489
▁поч	-490
ками	-491
▁чем	-492
кая	-493
▁ц	-494
мотре	-495
▁может	-496
▁Что	-497
руг	-498
ству	-499
▁Ни	-500
ан	-501
его	-502
▁вот	-503
кого	-504
▁Она	-505
ван	-506
час	-507
▁Со	-508
ять	-509
▁там	-510
▁Ро	-511
пре	-512
▁Ты	-513
рь	-514
при	-515
▁ла	-516
тра	-517
сты	-518
пол	-519
вор	-520
▁Ну	-521
ейчас	-522
▁Ва	-523
▁ско	-524
ман	-525
▁Ра	-526
▁этого	-527
ене	-528
дер	-529
ались	-530
вл	-531
лек	-532
▁себе	-533
▁каж	-534
цо	-535
▁быть	-536
▁Как	-537
нет	-538
проси	-539
▁Вы	-540
шел	-541
ез	-542
нее	-543
▁тебе	-544
▁лет	-545
▁подо	-546
ём	-547
ге	-548
перь	-549
дей	-550
▁сторо	-551
нно	-552
ит	-553
нулся	-554
жал	-555
кое	-556
вала	-557
▁дела	-558
▁Про	-559
▁этом	-560
▁ещё	-561
▁Та	-562
десь	-563
род	-564
тив	-565
▁ло	-566
▁ответ	-567
ких	-568
▁При	-569
вый	-570
▁больше	-571
ев	-572
▁лу	-573
▁помо	-574
▁спо	-575
▁того	-576
нд	-577
▁Ж	-578
▁поня	-579
ерез	-580
льно	-581
▁надо	-582
▁ди	-583
три	-584
ил	-585
стью	-586
ении	-587
кий	-588
ника	-589
ются	-590
нула	-591
▁тут	-592
ский	-593
тер	-594
ним	-595
▁день	-596
вшись	-597
шей	-598
лей	-599
▁них	-600
вто	-601
ний	-602
).	-603
рти	-604
нови	-605
ёт	-606
▁Ми	-607
▁Так	-608
сла	-609
ья	-610
щу	-611
▁ничего	-612
▁жен	-613
▁хоро	-614
▁Са	-615
кую	-616
▁этот	-617
чка	-618
▁тоже	-619
▁це	-620
▁ки	-621
▁A	-622
чит	-623
▁можно	-624
▁Ве	-625
▁Го	-626
зя	-627
ин	-628
жда	-629
▁Все	-630
вые	-631
▁чи	-632
▁сер	-633
ким	-634
стави	-635
he	-636
ально	-637
▁сказал	-638
▁тру	-639
ясь	-640
бли	-641
▁гру	-642
▁много	-643
цу	-644
▁Мы	-645
▁жизни	-646
▁сейчас	-647
лем	-648
ню	-649
нии	-650
кон	-651
▁сов	-652
шего	-653
▁боле	-654
▁тре	-655
казы	-656
тере	-657
▁ок	-658
▁потом	-659
▁расс	-660
▁дет	-661
▁Вот	-662
шла	-663
ят	-664
ред	-665
▁ей	-666
нова	-667
▁нам	-668
▁том	-669
▁буду	-670
▁До	-671
стра	-672
▁Хо	-673
▁всех	-674
▁ша	-675
▁фи	-676
▁друго	-677
▁име	-678
▁От	-679
сем	-680
▁мог	-681
▁здесь	-682
дол	-683
ением	-684
▁Ш	-685
▁поло	-686
▁поз	-687
шки	-688
бира	-689
▁ней	-690
мни	-691
▁зем	-692
▁нем	-693
вед	-694
▁пока	-695
▁один	-696
чем	-697
сколько	-698
▁кро	-699
ственно	-700
лом	-701
▁своей	-702
▁свет	-703
▁хоте	-704
▁ск	-705
▁ти	-706
фе	-707
▁чув	-708
▁,	-709
рен	-710
соб	-711
рт	-712
▁сра	-713
ений	-714
ете	-715
▁который	-716
чки	-717
▁через	-718
▁перед	-719
▁над	-720
▁уви	-721
шли	-722
дня	-723
▁ост	-724
ция	-725
чен	-726
нечно	-727
вра	-728
▁ос	-729
▁встре	-730
in	-731
▁ним	-732
ар	-733
▁теперь	-734
вых	-735
▁доро	-736
▁которые	-737
нал	-738
▁человек	-739
▁спроси	-740
▁жизнь	-741
ваться	-742
▁одно	-743
▁объ	-744
▁улы	-745
вался	-746
▁откры	-747
an	-748
йти	-749
▁пло	-750
▁всегда	-751
дов	-752
дар	-753
▁свою	-754
er	-755
▁Те	-756
нут	-757
▁тво	-758
▁взгля	-759
стно	-760
можно	-761
▁обо	-762
клю	-763
лаго	-764
▁гу	-765
▁Ви	-766
▁тот	-767
мой	-768
▁два	-769
ках	-770
сов	-771
ён	-772
ёл	-773
▁други	-774
▁свя	-775
▁ведь	-776
▁всего	-777
нуть	-778
стя	-779
▁люби	-780
дца	-781
▁реши	-782
ению	-783
▁пы	-784
▁Они	-785
▁могу	-786
прави	-787
▁муж	-788
▁лишь	-789
ью	-790
▁ря	-791
вати	-792
▁вас	-793
той	-794
ская	-795
▁дей	-796
▁моло	-797
из	-798
▁более	-799
вого	-800
▁кре	-801
▁поя	-802
дели	-803
▁сам	-804
дать	-805
дой	-806
▁t	-807
al	-808
▁Если	-809
жду	-810
щей	-811
▁вме	-812
вай	-813
щего	-814
тери	-815
▁женщи	-816
▁деву	-817
▁случа	-818
▁R	-819
▁чер	-820
дум	-821
чина	-822
▁Па	-823
nt	-824
▁луч	-825
▁бра	-826
тро	-827
▁ше	-828
ских	-829
рая	-830
▁тогда	-831
сс	-832
им	-833
▁чего	-834
▁сем	-835
жение	-836
▁буд	-837
вается	-838
▁вд	-839
ходя	-840
юсь	-841
▁стоя	-842
▁глу	-843
),	-844
▁людей	-845
вым	-846
обра	-847
▁произ	-848
воз	-849
▁гра	-850
теля	-851
▁сы	-852
сло	-853
▁несколько	-854
▁бро	-855
▁Ли	-856
нулась	-857
вания	-858
▁вопро	-859
рого	-860
▁этой	-861
▁исто	-862
▁слова	-863
▁всем	-864
тия	-865
когда	-866
нец	-867
▁послед	-868
▁мал	-869
▁кри	-870
чет	-871
▁любо	-872
сом	-873
▁Ю	-874
шло	-875
▁продол	-876
ходит	-877
води	-878
▁нео	-879
▁такой	-880
вое	-881
чал	-882
казать	-883
ден	-884
▁улыб	-885
▁ог	-886
▁понима	-887
▁вам	-888
▁спи	-889
ur	-890
вери	-891
пусти	-892
▁Когда	-893
or	-894
▁тра	-895
▁потому	-896
дал	-897
▁кру	-898
ников	-899
▁стал	-900
▁дома	-901
шая	-902
вич	-903
▁тя	-904
ники	-905
лыш	-906
вари	-907
▁дума	-908
▁смо	-909
кти	-910
кла	-911
▁пря	-912
▁три	-913
▁сме	-914
▁самы	-915
▁авто	-916
рей	-917
рю	-918
▁вос	-919
▁пар	-920
▁люди	-921
▁совсем	-922
▁коро	-923
▁свой	-924
пло	-925
ющий	-926
▁года	-927
рии	-928
▁человека	-929
что	-930
▁спа	-931
▁бли	-932
тать	-933
▁дере	-934
▁уди	-935
▁суще	-936
нт	-937
at	-938
ут	-939
▁Росси	-940
▁вся	-941
▁руки	-942
▁тер	-943
▁одна	-944
будь	-945
жения	-946
чку	-947
ском	-948
st	-949
ские	-950
▁вол	-951
ёр	-952
ших	-953
▁горо	-954
бро	-955
▁сдела	-956
от	-957
стве	-958
сни	-959
▁отно	-960
▁ска	-961
▁соб	-962
ставля	-963
▁сразу	-964
▁Нет	-965
мя	-966
▁своих	-967
вший	-968
шен	-969
▁ор	-970
▁комна	-971
▁какой	-972
▁вой	-973
▁тех	-974
▁благо	-975
▁знаю	-976
▁эта	-977
ленно	-978
▁Ан	-979
▁нужно	-980
..	-981
вь	-982
▁почти	-983
▁сол	-984
▁Алек	-985
▁своего	-986
жил	-987
▁снова	-988
▁двер	-989
▁мол	-990
▁Де	-991
▁ры	-992
цион	-993
▁мой	-994
пла	-995
yu	-996
▁обе	-997
фор	-998
▁успе	-999
▁сла	-1000
оло	-1001
▁Лю	-1002
▁вла	-1003
тем	-1004
▁интере	-1005
▁действи	-1006
ступ	-1007
▁теле	-1008
▁почему	-1009
зда	-1010
ех	-1011
деть	-1012
дра	-1013
вод	-1014
▁похо	-1015
▁смотре	-1016
этому	-1017
▁хотя	-1018
▁маши	-1019
жать	-1020
чала	-1021
обще	-1022
▁Ц	-1023
▁дви	-1024
вание	-1025
▁хорошо	-1026
▁Мне	-1027
▁Из	-1028
▁сту	-1029
▁получи	-1030
блю	-1031
▁лег	-1032
▁пле	-1033
ху	-1034
емо	-1035
▁совер	-1036
▁ника	-1037
зе	-1038
вают	-1039
рое	-1040
▁вра	-1041
нок	-1042
цию	-1043
▁высо	-1044
нибудь	-1045
мени	-1046
▁оказ	-1047
▁дер	-1048
лё	-1049
▁мои	-1050
▁спе	-1051
▁дело	-1052
▁га	-1053
▁вто	-1054
▁собой	-1055
▁никогда	-1056
мент	-1057
нув	-1058
▁Его	-1059
▁взя	-1060
част	-1061
▁ю	-1062
щее	-1063
телей	-1064
ум	-1065
реди	-1066
▁даль	-1067
нем	-1068
▁замет	-1069
лов	-1070
▁Ле	-1071
▁друг	-1072
йте	-1073
нес	-1074
▁прави	-1075
тан	-1076
▁мно	-1077
▁посмотре	-1078
▁смер	-1079
▁вдруг	-1080
спе	-1081
щая	-1082
▁рядом	-1083
говори	-1084
▁o	-1085
▁оп	-1086
▁вели	-1087
▁Сер	-1088
▁объя	-1089
жида	-1090
лин	-1091
пыт	-1092
▁внима	-1093
ления	-1094
▁кол	-1095
тели	-1096
▁кни	-1097
вом	-1098
▁роди	-1099
▁гор	-1100
вую	-1101
шку	-1102
ены	-1103
ход	-1104
▁наш	-1105
кре	-1106
▁между	-1107
ющих	-1108
▁куда	-1109
жды	-1110
▁B	-1111
дна	-1112
▁времени	-1113
▁сего	-1114
воль	-1115
▁прав	-1116
▁сп	-1117
тор	-1118
слу	-1119
▁разго	-1120
▁небо	-1121
▁сказать	-1122
▁M	-1123
▁ар	-1124
тре	-1125
▁I	-1126
▁жела	-1127
▁лицо	-1128
▁вместе	-1129
ваю	-1130
дох	-1131
▁возможно	-1132
▁уби	-1133
ряд	-1134
▁би	-1135
кото	-1136
▁оче	-1137
▁уж	-1138
ющие	-1139
▁нее	-1140
рия	-1141
▁кар	-1142
▁конечно	-1143
ское	-1144
▁голову	-1145
▁быстро	-1146
▁подня	-1147
▁ан	-1148
емы	-1149
чер	-1150
мотри	-1151
▁тол	-1152
▁следу	-1153
ток	-1154
рую	-1155
▁именно	-1156
▁.	-1157
▁вспо	-1158
дить	-1159
▁весь	-1160
вались	-1161
мина	-1162
▁мир	-1163
▁долго	-1164
▁непо	-1165
▁Ку	-1166
рави	-1167
▁малень	-1168
него	-1169
шно	-1170
▁место	-1171
▁обы	-1172
чной	-1173
▁уда	-1174
▁сегодня	-1175
ерт	-1176
сили	-1177
▁недо	-1178
ший	-1179
▁такое	-1180
▁мет	-1181
ступи	-1182
лый	-1183
щий	-1184
ила	-1185
▁своим	-1186
стер	-1187
▁долж	-1188
рил	-1189
воря	-1190
▁сте	-1191
▁спросил	-1192
СТ	-1193
▁кла	-1194
▁Ла	-1195
жала	-1196
став	-1197
▁приня	-1198
▁Бе	-1199
цев	-1200
кан	-1201
▁рус	-1202
▁ды	-1203
дит	-1204
▁дву	-1205
▁сдел	-1206
ливо	-1207
▁ши	-1208
▁немного	-1209
раз	-1210
▁р	-1211
▁руку	-1212
▁Только	-1213
фо	-1214
▁ули	-1215
▁сказала	-1216
стал	-1217
▁чет	-1218
▁лучше	-1219
▁Пу	-1220
ружи	-1221
▁мед	-1222
▁кор	-1223
▁фор	-1224
▁вообще	-1225
▁словно	-1226
▁которая	-1227
чать	-1228
!"	-1229
▁После	-1230
▁которой	-1231
▁пой	-1232
нием	-1233
вил	-1234
▁проис	-1235
▁матери	-1236
▁будто	-1237
чный	-1238
вез	-1239
▁эту	-1240
▁нау	-1241
▁находи	-1242
▁учи	-1243
▁сторону	-1244
пере	-1245
ети	-1246
**	-1247
,-	-1248
▁прекра	-1249
ством	-1250
писа	-1251
тый	-1252
нен	-1253
▁наде	-1254
▁поли	-1255
▁позво	-1256
▁мной	-1257
▁осо	-1258
▁Бу	-1259
тал	-1260
стой	-1261
▁Ду	-1262
▁Си	-1263
▁сама	-1264
дем	-1265
стей	-1266
▁никто	-1267
▁стран	-1268
▁согла	-1269
▁образо	-1270
куда	-1271
чита	-1272
▁язы	-1273
▁C	-1274
бор	-1275
шения	-1276
▁обла	-1277
альчи	-1278
▁забы	-1279
шой	-1280
▁Ме	-1281
▁делать	-1282
▁ха	-1283
▁эк	-1284
лез	-1285
▁назы	-1286
хов	-1287
ческой	-1288
▁другой	-1289
сса	-1290
кола	-1291
низ	-1292
▁ри	-1293
шим	-1294
▁кажды	-1295
▁ут	-1296
нер	-1297
рок	-1298
on	-1299
лой	-1300
ница	-1301
конец	-1302
них	-1303
it	-1304
▁бере	-1305
▁ква	-1306
РО	-1307
▁повер	-1308
шать	-1309
шие	-1310
▁кры	-1311
▁фо	-1312
▁сти	-1313
▁нес	-1314
кнул	-1315
▁дверь	-1316
щем	-1317
скую	-1318
вшие	-1319
▁вне	-1320
щен	-1321
шёл	-1322
ности	-1323
тки	-1324
▁кого	-1325
▁оби	-1326
▁равно	-1327
шую	-1328
вших	-1329
▁ху	-1330
▁Пет	-1331
зад	-1332
▁Ки	-1333
▁ум	-1334
▁орга	-1335
ление	-1336
хвати	-1337
пал	-1338
▁состоя	-1339
▁Одна	-1340
▁побе	-1341
▁вок	-1342
▁холо	-1343
▁S	-1344
▁Бы	-1345
▁хоть	-1346
чо	-1347
▁радо	-1348
юда	-1349
▁пор	-1350
ar	-1351
вели	-1352
нала	-1353
нах	-1354
вести	-1355
▁чуть	-1356
▁спра	-1357
▁всю	-1358
▁P	-1359
▁тро	-1360
шенно	-1361
шком	-1362
▁друга	-1363
вета	-1364
▁неу	-1365
▁против	-1366
ску	-1367
▁гото	-1368
кло	-1369
▁навер	-1370
▁одной	-1371
дил	-1372
жде	-1373
▁уго	-1374
▁Ре	-1375
жить	-1376
▁голос	-1377
фа	-1378
▁сли	-1379
▁c	-1380
цен	-1381
▁хозя	-1382
чение	-1383
▁стро	-1384
▁лично	-1385
▁прямо	-1386
поло	-1387
▁стре	-1388
▁этих	-1389
▁назад	-1390
▁оде	-1391
▁обще	-1392
ктор	-1393
нце	-1394
▁бес	-1395
▁вет	-1396
▁каз	-1397
▁огром	-1398
▁Му	-1399
▁этим	-1400
▁Ру	-1401
ЛИ	-1402
вле	-1403
нный	-1404
▁род	-1405
▁деся	-1406
рак	-1407
▁ак	-1408
гре	-1409
того	-1410
сё	-1411
en	-1412
▁жа	-1413
▁ца	-1414
▁Ба	-1415
▁явля	-1416
▁коман	-1417
тали	-1418
▁Раз	-1419
валась	-1420
▁сви	-1421
нию	-1422
▁стало	-1423
▁собира	-1424
▁мя	-1425
кам	-1426
▁ночь	-1427
сил	-1428
▁наз	-1429
чения	-1430
▁стороны	-1431
дцать	-1432
▁появи	-1433
чил	-1434
щения	-1435
▁ответил	-1436
чные	-1437
щение	-1438
РА	-1439
вольно	-1440
дель	-1441
ить	-1442
рот	-1443
▁места	-1444
гов	-1445
▁шко	-1446
▁заме	-1447
▁Анд	-1448
▁тому	-1449
тец	-1450
▁давно	-1451
нки	-1452
▁моей	-1453
▁некото	-1454
чув	-1455
нами	-1456
▁моя	-1457
▁которых	-1458
пря	-1459
▁наро	-1460
▁s	-1461
пера	-1462
гом	-1463
▁дум	-1464
▁должен	-1465
▁закры	-1466
ческих	-1467
▁свобо	-1468
вить	-1469
▁мало	-1470
▁чувство	-1471
▁сами	-1472
ях	-1473
▁момент	-1474
нали	-1475
▁силь	-1476
▁d	-1477
ваясь	-1478
▁краси	-1479
▁способ	-1480
▁Ста	-1481
▁стали	-1482
▁хочу	-1483
▁запа	-1484
гру	-1485
сут	-1486
щих	-1487
вало	-1488
вления	-1489
▁закон	-1490
▁фа	-1491
рова	-1492
судар	-1493
НО	-1494
▁воло	-1495
дали	-1496
▁необ	-1497
▁город	-1498
▁созда	-1499
▁также	-1500
гие	-1501
▁проб	-1502
▁останови	-1503
ствие	-1504
▁пора	-1505
лые	-1506
жали	-1507
es	-1508
ждения	-1509
ек	-1510
вное	-1511
казал	-1512
▁Зна	-1513
▁тор	-1514
▁настоя	-1515
▁све	-1516
дут	-1517
СС	-1518
кими	-1519
▁серд	-1520
▁ощу	-1521
▁выра	-1522
все	-1523
▁опять	-1524
▁паль	-1525
▁гро	-1526
втра	-1527
сколь	-1528
▁види	-1529
▁опре	-1530
▁уз	-1531
хра	-1532
тами	-1533
▁w	-1534
дви	-1535
▁зву	-1536
▁T	-1537
▁E	-1538
▁изве	-1539
▁Ар	-1540
▁Может	-1541
▁X	-1542
▁дальше	-1543
▁смы	-1544
ческого	-1545
рить	-1546
▁цен	-1547
дума	-1548
▁свое	-1549
рые	-1550
▁осно	-1551
▁неё	-1552
ур	-1553
рон	-1554
▁свер	-1555
▁знал	-1556
▁хотел	-1557
▁мыс	-1558
держи	-1559
жо	-1560
▁ге	-1561
▁жить	-1562
▁стала	-1563
▁Се	-1564
▁возду	-1565
▁гре	-1566
▁спокой	-1567
▁Кто	-1568
лага	-1569
▁которого	-1570
стран	-1571
▁сделать	-1572
кому	-1573
▁мысли	-1574
▁the	-1575
▁вокруг	-1576
▁такие	-1577
US	-1578
ность	-1579
чера	-1580
рав	-1581
▁живо	-1582
▁понял	-1583
▁точно	-1584
чему	-1585
▁каждый	-1586
▁тобой	-1587
▁испо	-1588
▁Вла	-1589
тые	-1590
▁доста	-1591
льзя	-1592
гли	-1593
▁домой	-1594
▁дале	-1595
щие	-1596
▁дня	-1597
коло	-1598
чных	-1599
вление	-1600
▁девушка	-1601
чить	-1602
▁напра	-1603
шение	-1604
▁потер	-1605
доро	-1606
мом	-1607
▁ино	-1608
тий	-1609
▁вну	-1610
рик	-1611
лли	-1612
рован	-1613
▁пода	-1614
▁Ин	-1615
▁ги	-1616
▁Ди	-1617
▁оно	-1618
▁подум	-1619
▁отли	-1620
▁две	-1621
ян	-1622
дро	-1623
▁предло	-1624
ским	-1625
роде	-1626
тен	-1627
ческий	-1628
доб	-1629
▁сна	-1630
▁взгляд	-1631
▁скоро	-1632
▁Су	-1633
▁Теперь	-1634
НИ	-1635
щую	-1636
▁вопрос	-1637
▁иде	-1638
▁убе	-1639
▁нуж	-1640
▁уни	-1641
▁увер	-1642
альные	-1643
▁одного	-1644
▁дево	-1645
нить	-1646
▁начал	-1647
▁особ	-1648
хом	-1649
тие	-1650
▁игра	-1651
▁поэтому	-1652
IA	-1653
▁работа	-1654
ческие	-1655
▁дом	-1656
▁Алекса	-1657
нули	-1658
▁рез	-1659
▁говорит	-1660
тур	-1661
▁мальчи	-1662
сит	-1663
▁нему	-1664
▁Мар	-1665
▁заня	-1666
▁месте	-1667
▁значит	-1668
вшего	-1669
▁кварти	-1670
ровать	-1671
кус	-1672
док	-1673
▁отве	-1674
лете	-1675
сед	-1676
лик	-1677
вора	-1678
тить	-1679
ема	-1680
▁Y	-1681
▁ще	-1682
ье	-1683
▁тяже	-1684
▁двух	-1685
▁стол	-1686
▁друз	-1687
▁говоря	-1688
▁других	-1689
▁опа	-1690
▁действительно	-1691
чат	-1692
их	-1693
яза	-1694
ятно	-1695
По	-1696
▁необходи	-1697
▁ци	-1698
.,	-1699
шее	-1700
▁стоит	-1701
▁уг	-1702
жешь	-1703
▁ними	-1704
us	-1705
▁такая	-1706
ньше	-1707
▁меч	-1708
▁самом	-1709
▁головой	-1710
and	-1711
▁начина	-1712
▁a	-1713
▁помощ	-1714
нные	-1715
чного	-1716
ent	-1717
валось	-1718
еру	-1719
тера	-1720
кал	-1721
▁Потом	-1722
рее	-1723
▁ид	-1724
ia	-1725
▁тихо	-1726
ницы	-1727
гии	-1728
дешь	-1729
таки	-1730
енное	-1731
▁собра	-1732
▁созна	-1733
▁л	-1734
чество	-1735
▁Ведь	-1736
▁слыш	-1737
вел	-1738
▁будут	-1739
▁переда	-1740
тил	-1741
▁совершенно	-1742
дова	-1743
▁Александ	-1744
▁дерев	-1745
▁проти	-1746
рев	-1747
▁подоб	-1748
ссо	-1749
льзо	-1750
лег	-1751
▁самого	-1752
рый	-1753
▁пом	-1754
▁стара	-1755
КА	-1756
▁вид	-1757
▁приходи	-1758
ствует	-1759
▁стар	-1760
▁постоя	-1761
▁какие	-1762
рий	-1763
▁гля	-1764
кро	-1765
гами	-1766
▁видел	-1767
цов	-1768
▁государ	-1769
▁Под	-1770
▁знако	-1771
▁Лу	-1772
чали	-1773
▁зло	-1774
зь	-1775
или	-1776
▁Никола	-1777
▁b	-1778
нной	-1779
чая	-1780
▁России	-1781
нения	-1782
зд	-1783
▁тело	-1784
форма	-1785
▁проблем	-1786
▁разви	-1787
▁напо	-1788
▁неболь	-1789
▁зо	-1790
▁зада	-1791
▁сне	-1792
ями	-1793
▁минут	-1794
нам	-1795
▁меся	-1796
▁ужа	-1797
▁Ти	-1798
лови	-1799
▁мира	-1800
тая	-1801
▁произо	-1802
▁Пере	-1803
▁полно	-1804
хва	-1805
гляды	-1806
▁Моск	-1807
▁Пер	-1808
is	-1809
нуться	-1810
▁обяза	-1811
▁возвра	-1812
▁Че	-1813
ющим	-1814
▁слишком	-1815
нять	-1816
НА	-1817
жем	-1818
жит	-1819
стов	-1820
хе	-1821
▁могла	-1822
.-	-1823
▁сердце	-1824
▁ноги	-1825
▁узна	-1826
▁Госпо	-1827
нил	-1828
▁Ива	-1829
альной	-1830
ЛЬ	-1831
новь	-1832
▁собствен	-1833
▁зако	-1834
▁непри	-1835
▁году	-1836
▁прос	-1837
ерк	-1838
yunt	-1839
yuntyu	-1840
тых	-1841
le	-1842
▁Там	-1843
рами	-1844
▁нашей	-1845
▁наблю	-1846
нк	-1847
ета	-1848
сен	-1849
▁ото	-1850
▁случи	-1851
▁сот	-1852
нулись	-1853
▁туда	-1854
▁наши	-1855
чей	-1856
▁Ryuntyu	-1857
▁мужчи	-1858
▁привы	-1859
▁случай	-1860
▁вспомни	-1861
▁поро	-1862
прав	-1863
▁ад	-1864
▁Зем	-1865
▁случае	-1866
вили	-1867
▁деньги	-1868
мов	-1869
эт	-1870
▁груп	-1871
▁уме	-1872
ступа	-1873
▁тыся	-1874
▁решил	-1875
▁энер	-1876
▁могут	-1877
▁Тогда	-1878
▁которую	-1879
нка	-1880
шке	-1881
▁неза	-1882
▁часто	-1883
ником	-1884
▁Всё	-1885
часть	-1886
▁глаз	-1887
▁нельзя	-1888
str	-1889
▁города	-1890
▁Почему	-1891
▁пыта	-1892
▁Об	-1893
▁протя	-1894
▁судь	-1895
▁говорил	-1896
дино	-1897
▁глав	-1898
льта	-1899
▁скры	-1900
▁дел	-1901
▁глазами	-1902
чке	-1903
▁наконец	-1904
▁хра	-1905
кать	-1906
чает	-1907
▁зави	-1908
▁пять	-1909
▁деле	-1910
рез	-1911
▁сред	-1912
сить	-1913
▁говорить	-1914
лена	-1915
▁станови	-1916
▁возра	-1917
чешь	-1918
▁f	-1919
▁такого	-1920
хать	-1921
▁зво	-1922
▁кажется	-1923
рал	-1924
▁внут	-1925
лых	-1926
▁год	-1927
гой	-1928
▁ради	-1929
ётся	-1930
▁увидел	-1931
▁сколько	-1932
цем	-1933
▁мину	-1934
▁офи	-1935
re	-1936
▁поко	-1937
лия	-1938
лед	-1939
ствия	-1940
▁Для	-1941
гал	-1942
▁таким	-1943
▁защи	-1944
▁рассказы	-1945
чества	-1946
лок	-1947
▁of	-1948
▁Гла	-1949
альных	-1950
▁удиви	-1951
хот	-1952
▁вновь	-1953
цей	-1954
▁хотелось	-1955
▁знает	-1956
так	-1957
▁представи	-1958
▁первый	-1959
рм	-1960
▁начала	-1961
▁сист	-1962
▁Им	-1963
▁поме	-1964
▁кам	-1965
;;	-1966
▁m	-1967
тью	-1968
чек	-1969
лены	-1970
мотря	-1971
▁p	-1972
▁Или	-1973
ющего	-1974
точно	-1975
▁беспо	-1976
▁существо	-1977
▁Ско	-1978
▁доб	-1979
▁рукой	-1980
шлось	-1981
лит	-1982
два	-1983
▁Однако	-1984
▁окру	-1985
▁той	-1986
▁показ	-1987
▁руко	-1988
▁затем	-1989
▁забо	-1990
тельный	-1991
матри	-1992
кри	-1993
бви	-1994
нувшись	-1995
стру	-1996
▁призна	-1997
▁таких	-1998
▁золо	-1999
▁спу	-2000
дят	-2001
▁отправи	-2002
▁зе	-2003
▁среди	-2004
чувство	-2005
сал	-2006
▁боя	-2007
▁голове	-2008
▁каждо	-2009
чным	-2010
туа	-2011
▁этому	-2012
кова	-2013
ющей	-2014
▁бога	-2015
рах	-2016
▁пыт	-2017
▁женщина	-2018
▁завтра	-2019
▁мор	-2020
▁яр	-2021
альный	-2022
▁счита	-2023
▁сооб	-2024
▁Мак	-2025
▁D	-2026
▁тон	-2027
сторо	-2028
▁пя	-2029
врем	-2030
ЕК	-2031
тья	-2032
чная	-2033
ций	-2034
▁раньше	-2035
жей	-2036
▁Би	-2037
▁совет	-2038
▁попа	-2039
▁неиз	-2040
▁плохо	-2041
▁уч	-2042
▁окон	-2043
чик	-2044
▁исче	-2045
▁един	-2046
▁and	-2047
выми	-2048
тился	-2049
▁знаешь	-2050
рию	-2051
▁сильно	-2052
▁своими	-2053
еры	-2054
uri	-2055
▁мама	-2056
▁упо	-2057
▁конце	-2058
▁ого	-2059
el	-2060
шед	-2061
▁/	-2062
ВА	-2063
▁проце	-2064
▁должны	-2065
▁Пре	-2066
цами	-2067
.)	-2068
the	-2069
▁отец	-2070
▁пару	-2071
▁выс	-2072
стом	-2073
▁обна	-2074
▁дра	-2075
▁слово	-2076
▁прин	-2077
▁части	-2078
▁уста	-2079
мый	-2080
▁ал	-2081
рит	-2082
▁неожида	-2083
дала	-2084
сной	-2085
▁представля	-2086
▁самое	-2087
▁которое	-2088
▁должно	-2089
частли	-2090
▁детей	-2091
▁мире	-2092
▁образом	-2093
▁другие	-2094
▁Фе	-2095
ro	-2096
▁руках	-2097
▁превра	-2098
▁специ	-2099
Да	-2100
▁XX	-2101
▁спросила	-2102
▁Ев	-2103
▁впере	-2104
правля	-2105
мся	-2106
▁разо	-2107
▁музы	-2108
шем	-2109
▁Хотя	-2110
▁серь	-2111
она	-2112
лая	-2113
уй	-2114
раб	-2115
▁Ха	-2116
▁карти	-2117
▁часть	-2118
▁неве	-2119
мери	-2120
графи	-2121
чие	-2122
▁пути	-2123
▁сюда	-2124
рошо	-2125
▁тай	-2126
▁сделал	-2127
оте	-2128
ссе	-2129
▁Воз	-2130
вшей	-2131
▁Даже	-2132
ель	-2133
▁нена	-2134
▁виде	-2135
▁причи	-2136
▁практи	-2137
▁мг	-2138
воре	-2139
▁коло	-2140
вар	-2141
▁посмотрел	-2142
▁близ	-2143
рина	-2144
▁моего	-2145
▁кос	-2146
▁край	-2147
стати	-2148
▁собы	-2149
рабо	-2150
▁понять	-2151
▁кроме	-2152
зульта	-2153
держа	-2154
мол	-2155
▁другу	-2156
▁попыт	-2157
▁работы	-2158
▁Бог	-2159
RA	-2160
▁особенно	-2161
▁писа	-2162
▁Сейчас	-2163
лета	-2164
▁хва	-2165
▁медленно	-2166
▁рай	-2167
ган	-2168
▁посте	-2169
рых	-2170
▁четы	-2171
▁всей	-2172
▁работу	-2173
ТО	-2174
▁большой	-2175
▁двери	-2176
ницу	-2177
▁руками	-2178
ЕР	-2179
▁Поэтому	-2180
▁весе	-2181
ИЯ	-2182
▁правда	-2183
гать	-2184
стан	-2185
▁казалось	-2186
▁Через	-2187
▁комп	-2188
▁лица	-2189
▁Конечно	-2190
деля	-2191
▁каби	-2192
нику	-2193
▁капи	-2194
▁приго	-2195
▁нару	-2196
▁согласи	-2197
▁души	-2198
нение	-2199
▁пси	-2200
▁информа	-2201
▁зачем	-2202
▁фак	-2203
нял	-2204
ристи	-2205
▁одну	-2206
▁стоял	-2207
▁глубо	-2208
ic	-2209
▁какая	-2210
тым	-2211
▁разли	-2212
сибо	-2213
▁самой	-2214
▁любви	-2215
▁повто	-2216
▁Ри	-2217
полне	-2218
нку	-2219
нных	-2220
няя	-2221
▁душе	-2222
▁могли	-2223
шек	-2224
▁посе	-2225
▁смотри	-2226
▁НА	-2227
▁Au	-2228
▁смерти	-2229
▁мгнов	-2230
▁бабу	-2231
▁Кра	-2232
▁легко	-2233
▁путь	-2234
▁исти	-2235
бря	-2236
ЕН	-2237
▁котором	-2238
▁ску	-2239
▁Вер	-2240
знако	-2241
▁прид	-2242
▁расска	-2243
▁гром	-2244
▁мест	-2245
ждение	-2246
▁реб	-2247
вут	-2248
▁запи	-2249
▁пожал	-2250
▁прошло	-2251
дите	-2252
▁бук	-2253
▁стать	-2254
▁длин	-2255
▁нрави	-2256
хода	-2257
▁госпо	-2258
шься	-2259
▁секу	-2260
ального	-2261
лки	-2262
лья	-2263
▁почувство	-2264
▁любовь	-2265
▁цвет	-2266
вобо	-2267
▁ев	-2268
чай	-2269
▁успо	-2270
▁устро	-2271
▁право	-2272
зор	-2273
дки	-2274
▁народ	-2275
мах	-2276
▁семь	-2277
▁Yuri	-2278
▁мать	-2279
дили	-2280
▁Где	-2281
▁выгля	-2282
▁зу	-2283
▁Mat	-2284
stral	-2285
дной	-2286
▁аб	-2287
▁удо	-2288
щим	-2289
▁найти	-2290
жки	-2291
нице	-2292
там	-2293
▁най	-2294
фон	-2295
гло	-2296
жила	-2297
чается	-2298
thew	-2299
▁захо	-2300
▁ладо	-2301
▁Austral	-2302
▁Matthew	-2303
▁уча	-2304
▁мужчина	-2305
▁вечер	-2306
ваются	-2307
На	-2308
сок	-2309
▁H	-2310
бер	-2311
▁Миха	-2312
▁ситуа	-2313
▁кори	-2314
▁шу	-2315
пример	-2316
▁выпол	-2317
▁кому	-2318
▁нашего	-2319
▁горя	-2320
стала	-2321
▁крас	-2322
дает	-2323
▁второй	-2324
еди	-2325
йся	-2326
Не	-2327
наче	-2328
▁самый	-2329
ехал	-2330
лым	-2331
грам	-2332
▁результа	-2333
▁невоз	-2334
▁сом	-2335
▁необходимо	-2336
ходить	-2337
▁кров	-2338
▁нами	-2339
возь	-2340
▁является	-2341
доров	-2342
▁комнату	-2343
пала	-2344
чиво	-2345
вли	-2346
ъез	-2347
▁креп	-2348
рос	-2349
тала	-2350
▁потеря	-2351
▁Надо	-2352
▁иногда	-2353
▁широ	-2354
мая	-2355
блиоте	-2356
▁Ге	-2357
▁будем	-2358
▁приз	-2359
oo	-2360
▁довольно	-2361
▁n	-2362
▁началь	-2363
▁гря	-2364
▁молча	-2365
▁планет	-2366
▁страш	-2367
▁мар	-2368
▁воды	-2369
▁измени	-2370
▁пусть	-2371
▁напи	-2372
дая	-2373
▁мене	-2374
▁небе	-2375
▁силы	-2376
шкой	-2377
▁мень	-2378
нев	-2379
▁пись	-2380
мира	-2381
▁пово	-2382
▁пои	-2383
тин	-2384
▁добро	-2385
▁органи	-2386
▁подру	-2387
дный	-2388
▁Га	-2389
▁взял	-2390
зать	-2391
▁гости	-2392
▁пото	-2393
▁исчез	-2394
▁утра	-2395
▁счасть	-2396
шин	-2397
жении	-2398
волю	-2399
▁зая	-2400
дина	-2401
мея	-2402
ент	-2403
▁Здесь	-2404
рё	-2405
▁пример	-2406
ed	-2407
▁интерес	-2408
▁сил	-2409
▁счастли	-2410
▁оши	-2411
▁Ло	-2412
кли	-2413
▁живот	-2414
▁имя	-2415
лее	-2416
▁разу	-2417
рин	-2418
▁сум	-2419
▁разве	-2420
алы	-2421
▁кив	-2422
▁AN	-2423
▁физи	-2424
евич	-2425
▁Влади	-2426
пли	-2427
▁проя	-2428
▁дене	-2429
▁идти	-2430
▁глазах	-2431
▁фото	-2432
▁вышел	-2433
жели	-2434
тельства	-2435
▁уд	-2436
пить	-2437
▁подумал	-2438
ному	-2439
▁дети	-2440
et	-2441
▁N	-2442
тельной	-2443
▁думал	-2444
▁Боль	-2445
▁Пи	-2446
▁полити	-2447
номи	-2448
ственной	-2449
▁воен	-2450
▁пара	-2451
гей	-2452
▁испол	-2453
сами	-2454
▁друзья	-2455
▁Спа	-2456
шему	-2457
▁Тут	-2458
▁хи	-2459
▁кур	-2460
▁пришлось	-2461
▁уров	-2462
под	-2463
▁занима	-2464
дания	-2465
▁спраши	-2466
тора	-2467
▁какое	-2468
▁темно	-2469
▁дней	-2470
▁отра	-2471
▁думаю	-2472
ответ	-2473
мир	-2474
дко	-2475
▁мою	-2476
альное	-2477
тесь	-2478
▁вздох	-2479
▁Бога	-2480
жим	-2481
туры	-2482
▁попро	-2483
лка	-2484
рио	-2485
▁Вели	-2486
▁своё	-2487
▁безо	-2488
▁знать	-2489
▁слы	-2490
▁наверное	-2491
мыш	-2492
▁AND	-2493
пуска	-2494
рет	-2495
▁землю	-2496
раль	-2497
чется	-2498
▁прибли	-2499
▁должна	-2500
тельное	-2501
▁профе	-2502
▁укра	-2503
▁откуда	-2504
ческая	-2505
▁земле	-2506
▁харак	-2507
тах	-2508
тон	-2509
лку	-2510
скому	-2511
▁помни	-2512
▁доба	-2513
▁ожи	-2514
▁сосед	-2515
влен	-2516
▁около	-2517
▁вполне	-2518
▁имеет	-2519
▁хочешь	-2520
▁Cent	-2521
▁времен	-2522
тей	-2523
▁Пока	-2524
жь	-2525
▁ребя	-2526
▁Ст	-2527
▁W	-2528
▁далеко	-2529
▁воск	-2530
сня	-2531
▁шо	-2532
зации	-2533
ig	-2534
вшая	-2535
▁Кон	-2536
▁поним	-2537
ключи	-2538
▁впер	-2539
▁бума	-2540
сят	-2541
лад	-2542
▁постави	-2543
▁ны	-2544
жной	-2545
▁сила	-2546
гих	-2547
▁наи	-2548
▁смотрел	-2549
▁куль	-2550
▁спокойно	-2551
▁потре	-2552
ЛО	-2553
меня	-2554
▁заметил	-2555
▁запо	-2556
ющее	-2557
▁наших	-2558
▁зас	-2559
▁видно	-2560
▁сим	-2561
лла	-2562
▁извест	-2563
тар	-2564
чкой	-2565
чами	-2566
вила	-2567
щему	-2568
ститу	-2569
ъе	-2570
▁кух	-2571
▁прекрас	-2572
▁простран	-2573
▁вроде	-2574
▁пти	-2575
as	-2576
интере	-2577
▁кем	-2578
гая	-2579
▁Чу	-2580
шил	-2581
логи	-2582
дила	-2583
▁коли	-2584
ческое	-2585
▁пригла	-2586
▁внутрен	-2587
▁мага	-2588
▁парень	-2589
▁мысль	-2590
▁неожиданно	-2591
▁едва	-2592
▁никак	-2593
▁безу	-2594
▁мужи	-2595
кру	-2596
▁оружи	-2597
▁написа	-2598
емся	-2599
▁дости	-2600
дное	-2601
мые	-2602
ственный	-2603
▁Свет	-2604
чное	-2605
▁твор	-2606
дев	-2607
дор	-2608
пали	-2609
тельные	-2610
▁дро	-2611
скоре	-2612
▁Андрей	-2613
▁Тем	-2614
▁попроси	-2615
вен	-2616
▁Меня	-2617
▁услыш	-2618
▁внимание	-2619
▁тела	-2620
UR	-2621
▁Хорошо	-2622
▁чём	-2623
рым	-2624
ешься	-2625
▁l	-2626
ровал	-2627
▁достаточно	-2628
▁направи	-2629
нё	-2630
нного	-2631
сл	-2632
жные	-2633
сила	-2634
льзу	-2635
▁Australia	-2636
пно	-2637
▁умер	-2638
▁отца	-2639
нюю	-2640
лять	-2641
▁сере	-2642
ехали	-2643
▁Россия	-2644
▁вниз	-2645
ям	-2646
▁моих	-2647
▁людя	-2648
ске	-2649
тка	-2650
дам	-2651
▁войны	-2652
▁поряд	-2653
▁чита	-2654
▁неме	-2655
шал	-2656
▁четыре	-2657
▁кабинет	-2658
чную	-2659
▁оказался	-2660
▁испы	-2661
жай	-2662
▁слов	-2663
сей	-2664
▁встрети	-2665
▁бле	-2666
▁восто	-2667
▁Сергей	-2668
нди	-2669
щал	-2670
▁пого	-2671
▁столько	-2672
прочем	-2673
АТ	-2674
▁Сто	-2675
▁чтоб	-2676
▁ответила	-2677
жный	-2678
ина	-2679
▁красо	-2680
▁услови	-2681
▁постоянно	-2682
▁h	-2683
▁задум	-2684
нное	-2685
▁дев	-2686
▁напря	-2687
▁изу	-2688
ing	-2689
мана	-2690
вей	-2691
▁хозяй	-2692
▁хотела	-2693
▁арми	-2694
▁доме	-2695
дёт	-2696
▁понимаю	-2697
▁взглядом	-2698
рат	-2699
▁пове	-2700
▁чёр	-2701
рила	-2702
ёз	-2703
мое	-2704
щаться	-2705
▁соба	-2706
солю	-2707
▁жена	-2708
▁солда	-2709
▁мимо	-2710
▁каким	-2711
▁противо	-2712
▁поки	-2713
▁очеред	-2714
▁норм	-2715
▁происходит	-2716
▁соз	-2717
▁начи	-2718
ходят	-2719
▁одино	-2720
▁выше	-2721
ook	-2722
ющая	-2723
цией	-2724
плы	-2725
ленной	-2726
гах	-2727
жая	-2728
▁воро	-2729
пил	-2730
люби	-2731
▁пам	-2732
▁испу	-2733
▁древ	-2734
▁резко	-2735
честве	-2736
▁поля	-2737
▁внутри	-2738
▁другом	-2739
ury	-2740
▁Просто	-2741
ВО	-2742
uss	-2743
▁женщины	-2744
ol	-2745
▁соци	-2746
▁ПО	-2747
▁дал	-2748
жает	-2749
▁скорее	-2750
▁своем	-2751
▁своему	-2752
▁воспо	-2753
ad	-2754
▁хочет	-2755
▁моз	-2756
▁площа	-2757
▁улыбнулся	-2758
▁годы	-2759
дался	-2760
▁Хри	-2761
▁поэ	-2762
▁часов	-2763
▁корот	-2764
жку	-2765
▁случилось	-2766
▁компа	-2767
кт	-2768
жением	-2769
▁поги	-2770
▁относи	-2771
▁in	-2772
бри	-2773
ведения	-2774
▁ожида	-2775
▁кли	-2776
▁закончи	-2777
мым	-2778
▁твой	-2779
▁сму	-2780
ремен	-2781
▁возник	-2782
▁приро	-2783
▁иск	-2784
▁празд	-2785
▁ново	-2786
▁обу	-2787
шить	-2788
тую	-2789
▁менее	-2790
▁Давай	-2791
дами	-2792
▁выбра	-2793
телем	-2794
▁Вам	-2795
▁зам	-2796
▁соответ	-2797
пор	-2798
▁показы	-2799
ходил	-2800
ou	-2801
▁земли	-2802
ion	-2803
тащи	-2804
▁истории	-2805
▁которым	-2806
▁мяг	-2807
▁волосы	-2808
▁чувству	-2809
гает	-2810
КО	-2811
▁никого	-2812
▁Ему	-2813
▁выз	-2814
▁полностью	-2815
рам	-2816
гры	-2817
ИИ	-2818
▁дея	-2819
▁трудно	-2820
▁возле	-2821
зем	-2822
скольку	-2823
вшийся	-2824
▁парти	-2825
▁одном	-2826
лосо	-2827
нется	-2828
рито	-2829
▁сопро	-2830
▁большо	-2831
нят	-2832
лев	-2833
▁кня	-2834
мента	-2835
▁знала	-2836
▁прежде	-2837
кси	-2838
▁присут	-2839
▁вста	-2840
▁буты	-2841
▁клю	-2842
▁вчера	-2843
▁магази	-2844
дим	-2845
▁полови	-2846
▁товари	-2847
▁очере	-2848
▁власти	-2849
▁Century	-2850
▁явно	-2851
▁связа	-2852
▁объясни	-2853
печат	-2854
▁иначе	-2855
▁распо	-2856
▁час	-2857
▁стру	-2858
жден	-2859
мена	-2860
▁разговор	-2861
зии	-2862
рения	-2863
▁меньше	-2864
▁геро	-2865
гнул	-2866
▁пят	-2867
▁кораб	-2868
▁отношения	-2869
▁давай	-2870
▁конца	-2871
▁;	-2872
▁обычно	-2873
▁многие	-2874
рд	-2875
▁Иго	-2876
▁важно	-2877
▁проз	-2878
▁горе	-2879
руд	-2880
тельным	-2881
▁заго	-2882
▁вещи	-2883
▁Russ	-2884
бре	-2885
нуло	-2886
▁Гер	-2887
▁Еще	-2888
▁силу	-2889
кля	-2890
▁будешь	-2891
чером	-2892
▁насе	-2893
▁комнате	-2894
▁искус	-2895
▁денег	-2896
носи	-2897
▁невозможно	-2898
▁сквозь	-2899
оне	-2900
▁миро	-2901
▁говорят	-2902
лан	-2903
тое	-2904
вол	-2905
▁преду	-2906
кар	-2907
▁настро	-2908
▁поце	-2909
▁Пред	-2910
леб	-2911
вном	-2912
▁вовсе	-2913
▁ИЗ	-2914
▁команди	-2915
▁сидел	-2916
чий	-2917
▁брат	-2918
еты	-2919
▁видимо	-2920
▁нер	-2921
ствовать	-2922
сю	-2923
жили	-2924
▁часа	-2925
▁Их	-2926
▁либо	-2927
▁Ча	-2928
ворю	-2929
▁уст	-2930
▁насто	-2931
▁люблю	-2932
ену	-2933
▁поняла	-2934
▁Свя	-2935
▁опусти	-2936
URO	-2937
▁Иван	-2938
▁главное	-2939
▁Сол	-2940
▁ува	-2941
зм	-2942
▁произошло	-2943
▁худо	-2944
▁оконча	-2945
мых	-2946
▁пожалуй	-2947
▁поле	-2948
▁Ничего	-2949
▁гене	-2950
▁видеть	-2951
▁Гри	-2952
бур	-2953
▁поез	-2954
пад	-2955
▁L	-2956
▁сни	-2957
▁Потому	-2958
зма	-2959
ЕТ	-2960
▁РО	-2961
▁удоволь	-2962
жных	-2963
тел	-2964
тельного	-2965
сков	-2966
слав	-2967
▁секре	-2968
бку	-2969
грани	-2970
▁помочь	-2971
▁улице	-2972
▁удалось	-2973
▁Пе	-2974
▁Челове	-2975
▁поку	-2976
ственное	-2977
менты	-2978
▁поста	-2979
▁шта	-2980
кнула	-2981
▁ибо	-2982
▁рассказ	-2983
▁цвета	-2984
ЛА	-2985
альным	-2986
▁использо	-2987
▁лес	-2988
▁уничто	-2989
▁Сло	-2990
▁сон	-2991
пя	-2992
▁бое	-2993
▁жерт	-2994
тельство	-2995
пан	-2996
пуск	-2997
лую	-2998
▁элек	-2999
▁сначала	-3000
▁предпо	-3001
Ну	-3002
гали	-3003
клады	-3004
▁всему	-3005
верх	-3006
ГО	-3007
VD	-3008
▁[	-3009
▁одним	-3010
нья	-3011
гро	-3012
▁DVD	-3013
****	-3014
▁чувства	-3015
ЕМ	-3016
ческим	-3017
▁Гу	-3018
нему	-3019
альная	-3020
НЫ	-3021
нит	-3022
▁Прав	-3023
▁передано	-3024
▁осторо	-3025
."	-3026
▁поза	-3027
чены	-3028
зов	-3029
рко	-3030
▁сын	-3031
▁хочется	-3032
▁осу	-3033
тельности	-3034
слен	-3035
▁заклю	-3036
▁проводи	-3037
алу	-3038
дцати	-3039
бами	-3040
пля	-3041
▁духов	-3042
оз	-3043
нин	-3044
▁всеми	-3045
гка	-3046
▁голова	-3047
ктора	-3048
▁жур	-3049
▁дя	-3050
▁пов	-3051
▁газ	-3052
▁служ	-3053
нович	-3054
как	-3055
▁Есть	-3056
▁й	-3057
кономи	-3058
▁принци	-3059
▁бывает	-3060
▁подума	-3061
▁обратно	-3062
▁разре	-3063
мую	-3064
▁двор	-3065
▁фигу	-3066
▁V	-3067
▁ненави	-3068
хло	-3069
▁пережи	-3070
▁гражда	-3071
пле	-3072
▁Навер	-3073
ay	-3074
ственного	-3075
▁милли	-3076
▁прода	-3077
▁последний	-3078
▁глядя	-3079
il	-3080
мого	-3081
тает	-3082
▁доку	-3083
▁Деву	-3084
енности	-3085
▁слегка	-3086
▁опера	-3087
тр	-3088
либо	-3089
▁прово	-3090
▁самым	-3091
▁смотреть	-3092
ъя	-3093
▁круп	-3094
▁лице	-3095
▁сохра	-3096
бно	-3097
▁вза	-3098
▁успел	-3099
▁Сем	-3100
▁вместо	-3101
▁спать	-3102
▁застави	-3103
несла	-3104
вин	-3105
риан	-3106
▁общем	-3107
разу	-3108
▁Мэт	-3109
▁перио	-3110
▁неизве	-3111
▁вами	-3112
▁столи	-3113
▁утвер	-3114
▁абсолю	-3115
тии	-3116
аля	-3117
▁жив	-3118
▁отды	-3119
▁голу	-3120
кров	-3121
▁Тот	-3122
стые	-3123
▁покры	-3124
▁террито	-3125
шина	-3126
▁нали	-3127
зил	-3128
▁отнош	-3129
ША	-3130
▁Сте	-3131
тельных	-3132
▁сих	-3133
▁столь	-3134
НТ	-3135
нта	-3136
▁зад	-3137
вича	-3138
мей	-3139
▁людям	-3140
▁дож	-3141
▁десять	-3142
▁улыба	-3143
имо	-3144
тье	-3145
▁пон	-3146
рыв	-3147
вини	-3148
ген	-3149
▁счит	-3150
тыми	-3151
▁городе	-3152
▁осталось	-3153
шает	-3154
▁стари	-3155
▁постро	-3156
над	-3157
▁груди	-3158
енность	-3159
▁мере	-3160
▁литера	-3161
нда	-3162
▁отда	-3163
нца	-3164
били	-3165
▁наша	-3166
нике	-3167
▁фу	-3168
мок	-3169
▁Юри	-3170
▁вижу	-3171
▁вклю	-3172
▁неда	-3173
▁уро	-3174
▁успоко	-3175
▁страны	-3176
▁преда	-3177
▁хвати	-3178
▁рука	-3179
▁реально	-3180
▁рели	-3181
▁Этот	-3182
▁принима	-3183
▁смог	-3184
▁думать	-3185
ходили	-3186
гия	-3187
▁пое	-3188
▁остро	-3189
▁дога	-3190
▁:	-3191
▁душа	-3192
сюда	-3193
ствии	-3194
бере	-3195
▁подро	-3196
▁сек	-3197
зиден	-3198
▁Слу	-3199
▁to	-3200
▁Значит	-3201
таль	-3202
▁какую	-3203
▁болез	-3204
▁мое	-3205
никами	-3206
▁серьез	-3207
▁Зачем	-3208
▁работать	-3209
страи	-3210
нила	-3211
прия	-3212
дия	-3213
ian	-3214
▁телефон	-3215
нным	-3216
▁подоз	-3217
▁убий	-3218
▁пала	-3219
▁филь	-3220
▁Пусть	-3221
нке	-3222
стри	-3223
роп	-3224
жало	-3225
▁ночи	-3226
▁добра	-3227
▁Ту	-3228
▁усме	-3229
▁есте	-3230
▁каждого	-3231
РИ	-3232
▁Кар	-3233
▁Чтобы	-3234
▁помню	-3235
▁следует	-3236
▁настолько	-3237
вшую	-3238
хватил	-3239
▁освобо	-3240
▁девушки	-3241
▁Ша	-3242
▁головы	-3243
▁сына	-3244
▁стояла	-3245
▁прош	-3246
дале	-3247
▁The	-3248
▁девочка	-3249
▁Сла	-3250
▁дорогу	-3251
думы	-3252
рес	-3253
▁Серге	-3254
силь	-3255
▁Дру	-3256
▁солнце	-3257
▁тяжело	-3258
▁коле	-3259
▁разру	-3260
▁Эти	-3261
обо	-3262
▁здоров	-3263
ДА	-3264
временно	-3265
▁пот	-3266
▁Чер	-3267
щать	-3268
▁идет	-3269
▁можешь	-3270
▁бал	-3271
тай	-3272
гер	-3273
дание	-3274
▁бело	-3275
▁поднима	-3276
▁внимания	-3277
шай	-3278
следо	-3279
▁весьма	-3280
▁молодой	-3281
▁голосом	-3282
ору	-3283
мин	-3284
рно	-3285
▁рот	-3286
жется	-3287
▁прости	-3288
▁человеком	-3289
вяз	-3290
▁машины	-3291
жин	-3292
бил	-3293
▁еди	-3294
нду	-3295
▁мер	-3296
▁пры	-3297
▁уто	-3298
▁Мэттью	-3299
тура	-3300
ворачи	-3301
▁готов	-3302
▁ран	-3303
▁удивл	-3304
▁Али	-3305
▁вызы	-3306
твер	-3307
▁значи	-3308
▁тепло	-3309
▁беско	-3310
За	-3311
▁требо	-3312
хран	-3313
бом	-3314
▁броси	-3315
▁Правда	-3316
егодня	-3317
▁тран	-3318
нная	-3319
▁другого	-3320
▁тема	-3321
дка	-3322
▁воду	-3323
кала	-3324
▁дороге	-3325
▁душу	-3326
▁ночью	-3327
▁пья	-3328
▁Уже	-3329
ческую	-3330
▁появля	-3331
▁мел	-3332
ch	-3333
чок	-3334
▁ног	-3335
▁другим	-3336
▁Коро	-3337
блиотеки	-3338
ЕЙ	-3339
▁пошел	-3340
▁Вас	-3341
▁крови	-3342
▁увидеть	-3343
▁необы	-3344
▁спас	-3345
▁цель	-3346
▁возможность	-3347
▁мини	-3348
▁видела	-3349
▁молоды	-3350
▁новый	-3351
▁цели	-3352
енном	-3353
цом	-3354
▁звез	-3355
▁известно	-3356
▁очередь	-3357
▁глуби	-3358
шеб	-3359
USS	-3360
гна	-3361
▁современ	-3362
▁опо	-3363
▁Ладно	-3364
▁вверх	-3365
вни	-3366
▁внеш	-3367
▁Кро	-3368
▁решила	-3369
▁чему	-3370
говорил	-3371
▁однако	-3372
▁чай	-3373
мат	-3374
рка	-3375
▁изобра	-3376
вок	-3377
▁скло	-3378
▁бой	-3379
вшиеся	-3380
▁понрави	-3381
ремя	-3382
▁посмотрела	-3383
▁степ	-3384
▁отсут	-3385
▁лест	-3386
▁Затем	-3387
▁например	-3388
▁оказалось	-3389
▁работе	-3390
▁подго	-3391
▁обязательно	-3392
▁разговари	-3393
▁Александр	-3394
▁вдо	-3395
▁участ	-3396
бить	-3397
пой	-3398
▁ждать	-3399
▁ясно	-3400
люб	-3401
дные	-3402
рому	-3403
▁земля	-3404
▁Оль	-3405
▁преступ	-3406
ющую	-3407
льный	-3408
▁взять	-3409
▁ап	-3410
кали	-3411
ствием	-3412
бора	-3413
дьми	-3414
▁говорю	-3415
▁кровь	-3416
▁замеча	-3417
▁спиной	-3418
▁нём	-3419
▁усили	-3420
▁утром	-3421
дку	-3422
▁увидела	-3423
лить	-3424
▁уче	-3425
тили	-3426
▁благода	-3427
▁рук	-3428
▁мона	-3429
▁наше	-3430
▁зи	-3431
▁губы	-3432
▁хло	-3433
жий	-3434
рович	-3435
жество	-3436
▁пришла	-3437
▁станет	-3438
▁дочь	-3439
▁Один	-3440
ССР	-3441
▁прибы	-3442
▁произнес	-3443
▁связи	-3444
▁тря	-3445
▁права	-3446
▁вперед	-3447
▁стреми	-3448
Ты	-3449
чё	-3450
стю	-3451
мор	-3452
▁напро	-3453
▁вышла	-3454
▁окна	-3455
▁позволя	-3456
▁проду	-3457
▁отвер	-3458
▁света	-3459
шет	-3460
лети	-3461
▁чудо	-3462
▁кое	-3463
▁разме	-3464
фу	-3465
▁выя	-3466
▁напол	-3467
▁пошли	-3468
тилась	-3469
тю	-3470
▁Неу	-3471
▁помощь	-3472
тите	-3473
▁похоже	-3474
▁зара	-3475
▁такую	-3476
▁послу	-3477
йдет	-3478
▁свете	-3479
▁Васили	-3480
жным	-3481
сон	-3482
ct	-3483
▁море	-3484
говорить	-3485
▁зерк	-3486
▁новые	-3487
тик	-3488
вшихся	-3489
кин	-3490
навли	-3491
▁XXI	-3492
бь	-3493
нач	-3494
▁книги	-3495
▁Очень	-3496
▁пошла	-3497
▁разные	-3498
▁пропа	-3499
▁чисто	-3500
▁внимательно	-3501
чон	-3502
▁повери	-3503
ален	-3504
роятно	-3505
тельная	-3506
ey	-3507
тный	-3508
▁Бори	-3509
▁жили	-3510
▁любой	-3511
Ко	-3512
▁вопросы	-3513
ссий	-3514
▁Сегодня	-3515
читать	-3516
▁демо	-3517
▁малы	-3518
▁смерть	-3519
▁каких	-3520
▁клу	-3521
▁упра	-3522
OG	-3523
хнул	-3524
▁возь	-3525
▁другое	-3526
▁окно	-3527
запно	-3528
▁практически	-3529
▁сказа	-3530
▁тек	-3531
▁образ	-3532
вид	-3533
▁твои	-3534
▁уверен	-3535
▁забра	-3536
▁начали	-3537
тной	-3538
▁услы	-3539
▁Спасибо	-3540
▁мощ	-3541
▁улыбнулась	-3542
!-	-3543
▁особо	-3544
▁стены	-3545
стая	-3546
▁впечат	-3547
▁любов	-3548
▁хво	-3549
тельность	-3550
RAL	-3551
▁опу	-3552
▁разно	-3553
▁осозна	-3554
▁Наконец	-3555
▁Можно	-3556
лил	-3557
▁Без	-3558
▁выход	-3559
▁окружа	-3560
▁здоро	-3561
un	-3562
вела	-3563
▁правильно	-3564
сах	-3565
▁времена	-3566
скими	-3567
▁комнаты	-3568
▁становится	-3569
станов	-3570
они	-3571
▁ль	-3572
▁вернулся	-3573
дишь	-3574
зить	-3575
▁круг	-3576
▁выда	-3577
мерикан	-3578
интересо	-3579
▁Жи	-3580
нили	-3581
▁воспи	-3582
▁порт	-3583
▁пяти	-3584
▁RUSS	-3585
▁экономи	-3586
▁RUSSIA	-3587
▁язык	-3588
мили	-3589
надцать	-3590
пов	-3591
▁низ	-3592
▁располо	-3593
тяги	-3594
рует	-3595
▁машину	-3596
▁зале	-3597
▁АВ	-3598
ge	-3599
▁ума	-3600
▁никаких	-3601
▁поскольку	-3602
▁людьми	-3603
Что	-3604
вку	-3605
▁тан	-3606
бки	-3607
▁гло	-3608
▁каза	-3609
▁жел	-3610
▁имени	-3611
▁искать	-3612
▁виду	-3613
UST	-3614
пет	-3615
▁цве	-3616
▁держа	-3617
▁пришел	-3618
id	-3619
ющими	-3620
▁погиб	-3621
RALIA	-3622
USTRALIA	-3623
▁сообщи	-3624
▁AUSTRALIA	-3625
ева	-3626
сел	-3627
веря	-3628
▁Девушка	-3629
▁дире	-3630
нную	-3631
пел	-3632
дии	-3633
▁СССР	-3634
▁Тебе	-3635
▁находится	-3636
сер	-3637
▁поверх	-3638
▁неде	-3639
▁дли	-3640
верь	-3641
▁Рю	-3642
▁твоя	-3643
анта	-3644
▁ужас	-3645
▁Сле	-3646
жка	-3647
спи	-3648
▁борь	-3649
▁оказы	-3650
▁самые	-3651
▁истори	-3652
▁народа	-3653
▁эмо	-3654
▁века	-3655
▁мерт	-3656
▁двадцать	-3657
ОТ	-3658
стями	-3659
▁тю	-3660
▁собственно	-3661
▁филосо	-3662
▁обер	-3663
▁воздух	-3664
▁боро	-3665
▁предста	-3666
▁кровати	-3667
▁лиш	-3668
▁Именно	-3669
▁боли	-3670
чила	-3671
▁утро	-3672
▁остался	-3673
надле	-3674
▁заво	-3675
▁говорила	-3676
бель	-3677
▁встреча	-3678
ана	-3679
▁контро	-3680
▁лоша	-3681
▁вечно	-3682
мати	-3683
▁разум	-3684
рица	-3685
ило	-3686
▁кивнул	-3687
пенно	-3688
ступил	-3689
сыпа	-3690
▁молодо	-3691
▁ближе	-3692
▁разных	-3693
шеп	-3694
тало	-3695
стр	-3696
▁огля	-3697
▁сердца	-3698
седа	-3699
ванием	-3700
▁пытался	-3701
▁встал	-3702
▁зал	-3703
▁U	-3704
▁подтвер	-3705
▁програм	-3706
▁запре	-3707
▁завер	-3708
▁многих	-3709
вка	-3710
▁шаг	-3711
▁РОСС	-3712
гам	-3713
дного	-3714
знакоми	-3715
▁раскры	-3716
▁требу	-3717
▁Сам	-3718
se	-3719
▁осторожно	-3720
▁основ	-3721
▁неви	-3722
▁дни	-3723
щается	-3724
▁цело	-3725
▁сел	-3726
▁пусты	-3727
▁принадле	-3728
▁дать	-3729
ссы	-3730
▁цар	-3731
▁США	-3732
енный	-3733
митри	-3734
▁меди	-3735
образ	-3736
▁предупре	-3737
▁бор	-3738
▁нового	-3739
▁вез	-3740
шими	-3741
▁стола	-3742
▁Николай	-3743
Мо	-3744
телями	-3745
▁первой	-3746
▁открыл	-3747
▁следующий	-3748
▁громко	-3749
▁таком	-3750
▁Пос	-3751
кет	-3752
ственных	-3753
▁определ	-3754
▁первого	-3755
▁временем	-3756
▁жало	-3757
▁самых	-3758
▁ветер	-3759
▁смотрит	-3760
▁вечером	-3761
читы	-3762
▁коридо	-3763
▁человеку	-3764
ждать	-3765
евна	-3766
▁обре	-3767
▁какого	-3768
▁Укра	-3769
день	-3770
▁узнать	-3771
▁свидет	-3772
▁трудом	-3773
вился	-3774
▁охра	-3775
▁+	-3776
лаг	-3777
писы	-3778
▁некоторые	-3779
▁нужен	-3780
▁прият	-3781
▁одновременно	-3782
ственным	-3783
▁мра	-3784
влек	-3785
▁дороги	-3786
▁Ее	-3787
ехала	-3788
жался	-3789
▁замер	-3790
▁подошел	-3791
▁Вол	-3792
чим	-3793
▁словами	-3794
▁страшно	-3795
жив	-3796
▁Кри	-3797
ИБ	-3798
▁Нам	-3799
▁бар	-3800
лыми	-3801
II	-3802
▁Макси	-3803
▁ребен	-3804
▁стояли	-3805
нести	-3806
▁смотрела	-3807
Но	-3808
▁G	-3809
▁бол	-3810
вшим	-3811
▁АВСТ	-3812
стый	-3813
▁речь	-3814
▁говорили	-3815
om	-3816
▁назна	-3817
▁Аль	-3818
пку	-3819
▁опасно	-3820
▁гри	-3821
▁никому	-3822
тила	-3823
▁психо	-3824
ёшь	-3825
▁сро	-3826
▁приоб	-3827
▁сможет	-3828
пры	-3829
▁бур	-3830
▁осве	-3831
ристиан	-3832
▁заку	-3833
мон	-3834
▁интересно	-3835
▁пытаясь	-3836
▁Впрочем	-3837
▁возму	-3838
диться	-3839
МИ	-3840
▁минуту	-3841
▁тысяч	-3842
емый	-3843
▁жени	-3844
▁интер	-3845
▁зато	-3846
димо	-3847
ческом	-3848
▁предо	-3849
im	-3850
сток	-3851
▁понятно	-3852
друг	-3853
▁кило	-3854
бов	-3855
▁заму	-3856
▁изо	-3857
▁впервые	-3858
▁спря	-3859
▁волшеб	-3860
ссу	-3861
▁мило	-3862
▁нужна	-3863
ссии	-3864
▁фотографи	-3865
▁метал	-3866
▁оба	-3867
▁Саша	-3868
вству	-3869
рили	-3870
▁оказалась	-3871
льной	-3872
цам	-3873
тку	-3874
▁номер	-3875
▁трево	-3876
▁Библиотеки	-3877
цени	-3878
пом	-3879
▁грудь	-3880
▁Эта	-3881
пру	-3882
▁руке	-3883
ерков	-3884
▁желание	-3885
▁семей	-3886
▁Book	-3887
▁желез	-3888
▁начало	-3889
ологи	-3890
чками	-3891
▁оставля	-3892
▁пусто	-3893
▁лицом	-3894
▁Ах	-3895
▁Гор	-3896
шко	-3897
нился	-3898
▁путе	-3899
дру	-3900
▁знаете	-3901
▁показалось	-3902
▁подчи	-3903
▁каса	-3904
мяти	-3905
стить	-3906
▁стихи	-3907
▁нав	-3908
▁сда	-3909
щает	-3910
бло	-3911
▁моим	-3912
▁гар	-3913
▁e	-3914
▁воспомина	-3915
вав	-3916
▁иди	-3917
▁Стра	-3918
▁шел	-3919
▁Май	-3920
влека	-3921
дах	-3922
мини	-3923
▁однажды	-3924
▁папа	-3925
▁делает	-3926
нтю	-3927
▁могло	-3928
▁сва	-3929
▁вечера	-3930
▁власть	-3931
▁g	-3932
сне	-3933
ниц	-3934
▁зага	-3935
▁озна	-3936
▁угро	-3937
вки	-3938
▁состоянии	-3939
лье	-3940
▁сига	-3941
▁полез	-3942
▁огонь	-3943
▁слышал	-3944
▁растер	-3945
▁прикры	-3946
▁последние	-3947
чёт	-3948
▁друзей	-3949
ОР	-3950
жного	-3951
мар	-3952
йдя	-3953
▁заним	-3954
КИ	-3955
▁Ab	-3956
оборот	-3957
▁сты	-3958
▁стране	-3959
▁чит	-3960
▁дого	-3961
ленный	-3962
▁прекрасно	-3963
▁усмех	-3964
▁Дмитри	-3965
▁мужа	-3966
▁Фи	-3967
▁Вто	-3968
▁дыха	-3969
Ка	-3970
эй	-3971
чными	-3972
▁поднял	-3973
▁получил	-3974
жие	-3975
▁Ио	-3976
▁возможности	-3977
▁события	-3978
▁Рюнтю	-3979
▁думала	-3980
кура	-3981
▁девя	-3982
▁дворе	-3983
▁сознание	-3984
диви	-3985
нёс	-3986
▁проблемы	-3987
▁гряз	-3988
ственные	-3989
един	-3990
ходило	-3991
▁измен	-3992
▁револю	-3993
▁шли	-3994
▁привет	-3995
рта	-3996
▁приез	-3997
▁решили	-3998
▁телефо	-3999
▁месяц	-4000
▁Ей	-4001
▁сц	-4002
▁попу	-4003
телям	-4004
▁пози	-4005
▁винова	-4006
▁институ	-4007
сали	-4008
рился	-4009
▁Дж	-4010
стую	-4011
▁нравится	-4012
ису	-4013
титься	-4014
дился	-4015
▁рассматри	-4016
▁любил	-4017
▁продолжал	-4018
▁Ната	-4019
зом	-4020
▁насла	-4021
▁Ска	-4022
сный	-4023
▁май	-4024
▁недавно	-4025
▁никакого	-4026
inal	-4027
▁Ор	-4028
▁смысл	-4029
ходила	-4030
▁букв	-4031
▁мело	-4032
▁Мари	-4033
▁кино	-4034
щик	-4035
▁поздно	-4036
гий	-4037
дую	-4038
▁Лени	-4039
▁развер	-4040
кор	-4041
▁треть	-4042
▁смотря	-4043
еме	-4044
всегда	-4045
▁лё	-4046
▁обстоя	-4047
▁обсу	-4048
▁девушку	-4049
▁ию	-4050
▁мили	-4051
▁стан	-4052
▁потя	-4053
▁Пав	-4054
йтесь	-4055
▁двига	-4056
чили	-4057
дных	-4058
▁зака	-4059
▁любит	-4060
▁нежно	-4061
▁Совет	-4062
▁память	-4063
▁охо	-4064
сф	-4065
▁Дар	-4066
▁большин	-4067
ровали	-4068
▁Стали	-4069
боль	-4070
▁неделю	-4071
▁Мама	-4072
дится	-4073
▁нос	-4074
стях	-4075
кос	-4076
▁объяс	-4077
РЕ	-4078
хожу	-4079
ld	-4080
бка	-4081
▁Наверное	-4082
▁Жен	-4083
▁Мой	-4084
▁пау	-4085
▁Люди	-4086
тина	-4087
▁Чи	-4088
стрее	-4089
▁твоей	-4090
▁хуже	-4091
эн	-4092
▁БИБ	-4093
пать	-4094
чнее	-4095
▁строи	-4096
▁помощью	-4097
▁Дума	-4098
ленные	-4099
▁выпи	-4100
▁вариан	-4101
эр	-4102
▁БИБЛИ	-4103
▁скажу	-4104
щими	-4105
▁мужчины	-4106
▁кула	-4107
влении	-4108
▁кофе	-4109
▁Муж	-4110
раздо	-4111
вит	-4112
▁абсолютно	-4113
orig	-4114
▁нашу	-4115
▁непро	-4116
▁новой	-4117
чался	-4118
▁Ал	-4119
▁Наде	-4120
▁дура	-4121
▁коль	-4122
▁ладно	-4123
▁Было	-4124
▁указа	-4125
▁жил	-4126
няка	-4127
▁помощи	-4128
кнов	-4129
▁сотруд	-4130
▁силой	-4131
▁Жиз	-4132
▁удоб	-4133
енька	-4134
дий	-4135
жё	-4136
▁лежа	-4137
▁несколь	-4138
▁находя	-4139
▁появился	-4140
▁Моло	-4141
original	-4142
▁бесс	-4143
▁th	-4144
лина	-4145
▁посо	-4146
▁поддер	-4147
▁странно	-4148
▁плем	-4149
▁узнал	-4150
ктивно	-4151
▁улицу	-4152
▁Сна	-4153
бран	-4154
▁шум	-4155
стный	-4156
▁Ники	-4157
▁поса	-4158
▁тет	-4159
▁преж	-4160
▁Aboriginal	-4161
++	-4162
▁Пар	-4163
альше	-4164
▁ныне	-4165
▁чуде	-4166
▁Вдруг	-4167
сия	-4168
лях	-4169
▁четвер	-4170
▁больно	-4171
▁погру	-4172
жела	-4173
▁счастье	-4174
▁Кстати	-4175
▁Сколько	-4176
▁случайно	-4177
лон	-4178
▁комму	-4179
▁движения	-4180
ними	-4181
▁НЕ	-4182
▁Возможно	-4183
таться	-4184
▁конец	-4185
долго	-4186
▁фра	-4187
▁Евро	-4188
дная	-4189
▁берегу	-4190
▁юно	-4191
▁небольшой	-4192
ir	-4193
▁предмет	-4194
лго	-4195
▁конф	-4196
▁запла	-4197
▁учени	-4198
Это	-4199
▁мальчик	-4200
▁знали	-4201
▁удар	-4202
▁сожал	-4203
▁почувствовал	-4204
▁ногами	-4205
▁Зо	-4206
▁Ана	-4207
▁вскоре	-4208
▁памяти	-4209
▁студен	-4210
▁тради	-4211
▁дво	-4212
▁отказ	-4213
▁родствен	-4214
▁услышал	-4215
▁Иису	-4216
PE	-4217
▁отсюда	-4218
ждый	-4219
▁сре	-4220
▁распро	-4221
▁Ещё	-4222
▁можем	-4223
▁влия	-4224
пись	-4225
▁след	-4226
▁лесу	-4227
▁плечо	-4228
▁взяла	-4229
▁моря	-4230
▁тео	-4231
▁глупо	-4232
▁понимал	-4233
тания	-4234
▁пона	-4235
женно	-4236
▁пожи	-4237
▁трех	-4238
▁чере	-4239
нями	-4240
▁начинает	-4241
йт	-4242
▁смогу	-4243
ЛЕ	-4244
дан	-4245
▁женщин	-4246
▁Разве	-4247
▁зв	-4248
▁Андре	-4249
ати	-4250
▁суб	-4251
ффе	-4252
▁напротив	-4253
чился	-4254
▁сильнее	-4255
▁числе	-4256
▁тё	-4257
нятно	-4258
рус	-4259
хла	-4260
▁жо	-4261
жено	-4262
▁выр	-4263
▁Рас	-4264
числен	-4265
▁Виктор	-4266
▁Пра	-4267
▁шут	-4268
пь	-4269
ut	-4270
▁КО	-4271
▁поря	-4272
▁твер	-4273
ственная	-4274
жите	-4275
▁маленький	-4276
▁руб	-4277
▁обнаружи	-4278
ie	-4279
▁поо	-4280
▁теа	-4281
▁немец	-4282
▁for	-4283
гала	-4284
▁бан	-4285
глу	-4286
▁Игорь	-4287
▁семьи	-4288
тана	-4289
никам	-4290
▁опыт	-4291
▁Воло	-4292
▁своём	-4293
▁моро	-4294
довал	-4295
ктов	-4296
▁иметь	-4297
▁отдель	-4298
кни	-4299
▁придется	-4300
▁история	-4301
ствовал	-4302
▁первым	-4303
дным	-4304
▁характер	-4305
▁нашем	-4306
▁протянул	-4307
▁скри	-4308
нению	-4309
▁автомо	-4310
деми	-4311
▁объек	-4312
женный	-4313
▁национ	-4314
альную	-4315
ленных	-4316
▁Фран	-4317
▁плечами	-4318
▁весело	-4319
▁щ	-4320
▁другую	-4321
▁счет	-4322
чих	-4323
▁порядке	-4324
▁вкус	-4325
строй	-4326
▁перво	-4327
▁ступ	-4328
▁выдер	-4329
▁ближай	-4330
▁инстру	-4331
алов	-4332
▁рассу	-4333
▁жесто	-4334
▁пожалуйста	-4335
▁F	-4336
▁Голо	-4337
сам	-4338
▁заб	-4339
▁американ	-4340
пах	-4341
▁путеше	-4342
▁досто	-4343
пки	-4344
▁посмотреть	-4345
▁участи	-4346
няла	-4347
▁плечи	-4348
▁воспри	-4349
▁прили	-4350
▁пришли	-4351
жены	-4352
▁познакоми	-4353
▁знаком	-4354
емон	-4355
шит	-4356
▁зовут	-4357
▁брать	-4358
▁маги	-4359
▁гораздо	-4360
где	-4361
чением	-4362
▁автобу	-4363
енные	-4364
кс	-4365
▁Отец	-4366
стали	-4367
▁шла	-4368
▁нев	-4369
ваешь	-4370
▁кот	-4371
▁рождения	-4372
▁вода	-4373
▁Пла	-4374
▁v	-4375
▁Неужели	-4376
▁кафе	-4377
лке	-4378
▁производ	-4379
▁дальней	-4380
▁развития	-4381
туда	-4382
▁Ино	-4383
▁отчая	-4384
скать	-4385
вании	-4386
▁непре	-4387
▁покло	-4388
вной	-4389
▁стен	-4390
▁публи	-4391
▁заставля	-4392
ведение	-4393
▁состояние	-4394
ковой	-4395
▁водой	-4396
▁моё	-4397
▁мето	-4398
▁отдел	-4399
▁пору	-4400
▁решение	-4401
▁предложил	-4402
хой	-4403
ЛИЯ	-4404
вёр	-4405
▁печ	-4406
▁подумала	-4407
тные	-4408
▁области	-4409
гар	-4410
▁села	-4411
▁имел	-4412
▁карто	-4413
▁запах	-4414
▁оправ	-4415
▁слабо	-4416
▁источ	-4417
▁ими	-4418
▁поводу	-4419
am	-4420
▁постепенно	-4421
▁шка	-4422
▁поспе	-4423
▁повторя	-4424
▁безопа	-4425
▁востор	-4426
▁прошеп	-4427
▁руба	-4428
▁будь	-4429
▁вон	-4430
▁Вз	-4431
емой	-4432
ины	-4433
тру	-4434
▁оказались	-4435
▁концов	-4436
ствуют	-4437
зан	-4438
▁хле	-4439
▁телеви	-4440
симо	-4441
▁офици	-4442
Ма	-4443
▁Богу	-4444
▁армии	-4445
▁сторон	-4446
лями	-4447
▁Оста	-4448
▁разби	-4449
▁оз	-4450
▁позна	-4451
ТУ	-4452
▁теря	-4453
▁нужны	-4454
нан	-4455
▁смысле	-4456
▁Олег	-4457
▁цивили	-4458
дают	-4459
ваем	-4460
▁квартиру	-4461
стья	-4462
▁школе	-4463
▁жал	-4464
▁самому	-4465
▁обеспе	-4466
▁хол	-4467
нос	-4468
▁зали	-4469
▁родители	-4470
▁сове	-4471
▁сделала	-4472
альном	-4473
чало	-4474
▁вслед	-4475
▁общества	-4476
нье	-4477
вов	-4478
▁краса	-4479
летел	-4480
емые	-4481
ый	-4482
▁Алексей	-4483
▁деревя	-4484
▁Никто	-4485
еркви	-4486
стым	-4487
ёд	-4488
пустил	-4489
▁мгновение	-4490
▁упа	-4491
▁позже	-4492
▁которому	-4493
стности	-4494
▁Каждый	-4495
▁работ	-4496
▁сор	-4497
▁сидела	-4498
▁спину	-4499
▁впереди	-4500
дном	-4501
▁нечто	-4502
енье	-4503
тельную	-4504
дленно	-4505
ляр	-4506
▁редко	-4507
▁очередной	-4508
▁вспомнил	-4509
▁столом	-4510
дравству	-4511
лился	-4512
▁опас	-4513
▁наоборот	-4514
▁страх	-4515
▁плю	-4516
▁испыты	-4517
десят	-4518
▁EURO	-4519
▁подошла	-4520
▁EUROPE	-4521
▁оружие	-4522
▁вздохнул	-4523
юз	-4524
▁раздра	-4525
▁Любо	-4526
ёрт	-4527
▁Человек	-4528
▁историю	-4529
▁Пол	-4530
лено	-4531
▁Анна	-4532
▁роль	-4533
нном	-4534
▁заслу	-4535
▁раду	-4536
▁качестве	-4537
▁остановился	-4538
▁нечего	-4539
▁игру	-4540
▁*	-4541
▁фе	-4542
▁чувствовал	-4543
▁Фа	-4544
▁меха	-4545
▁стене	-4546
▁выну	-4547
следова	-4548
▁метров	-4549
▁Сы	-4550
▁зай	-4551
▁миг	-4552
▁вспы	-4553
вив	-4554
▁умира	-4555
шали	-4556
▁кара	-4557
▁Ры	-4558
казаться	-4559
зво	-4560
▁исклю	-4561
нности	-4562
стры	-4563
▁Перед	-4564
биль	-4565
шили	-4566
▁двое	-4567
скочил	-4568
вный	-4569
жная	-4570
▁сю	-4571
▁Куда	-4572
▁скла	-4573
▁костю	-4574
▁куп	-4575
▁брата	-4576
тных	-4577
сках	-4578
▁хру	-4579
▁рода	-4580
▁прогу	-4581
▁вести	-4582
▁навсегда	-4583
▁Её	-4584
ьют	-4585
ваюсь	-4586
▁углу	-4587
▁сен	-4588
▁вышли	-4589
▁сидя	-4590
виться	-4591
▁первую	-4592
зами	-4593
▁невы	-4594
▁стару	-4595
▁приказ	-4596
▁ВЕК	-4597
▁улыбкой	-4598
▁раст	-4599
стной	-4600
▁парня	-4601
телось	-4602
▁фран	-4603
бок	-4604
ходу	-4605
▁Чем	-4606
▁съе	-4607
чено	-4608
чери	-4609
чики	-4610
▁руководи	-4611
баты	-4612
▁Роди	-4613
▁восхи	-4614
▁Ген	-4615
▁вернуться	-4616
спу	-4617
▁составля	-4618
ету	-4619
▁отре	-4620
кта	-4621
чив	-4622
▁суме	-4623
▁Мои	-4624
ТА	-4625
▁солдат	-4626
няли	-4627
енько	-4628
▁пес	-4629
довлет	-4630
▁Эй	-4631
▁фанта	-4632
▁Кроме	-4633
дкой	-4634
дения	-4635
▁ть	-4636
▁повы	-4637
жима	-4638
▁АВСТРА	-4639
▁честно	-4640
▁управля	-4641
▁оско	-4642
▁граждан	-4643
ково	-4644
▁ез	-4645
▁млад	-4646
▁тала	-4647
▁ограни	-4648
вшегося	-4649
дец	-4650
))	-4651
▁анге	-4652
▁существует	-4653
лам	-4654
▁напомина	-4655
воро	-4656
▁шесть	-4657
▁несмотря	-4658
фы	-4659
ведливо	-4660
▁подъез	-4661
цер	-4662
▁начале	-4663
шала	-4664
▁получилось	-4665
▁забыл	-4666
▁коми	-4667
чном	-4668
▁страха	-4669
▁благодар	-4670
пять	-4671
▁Тре	-4672
▁Сначала	-4673
▁лета	-4674
▁мель	-4675
▁сосе	-4676
ился	-4677
▁нож	-4678
▁тём	-4679
▁поступ	-4680
▁англи	-4681
▁напа	-4682
▁школы	-4683
▁ат	-4684
va	-4685
ВИ	-4686
телю	-4687
▁фон	-4688
▁Владимир	-4689
▁внезапно	-4690
ницей	-4691
▁Михаил	-4692
▁каждой	-4693
▁маг	-4694
▁Чего	-4695
жений	-4696
зия	-4697
▁чаще	-4698
▁достал	-4699
▁бри	-4700
▁бесе	-4701
созна	-4702
▁километ	-4703
лер	-4704
няет	-4705
▁самая	-4706
▁отмет	-4707
▁лёг	-4708
▁Шу	-4709
▁анти	-4710
ам	-4711
▁АВСТРАЛИЯ	-4712
лемен	-4713
чика	-4714
▁роман	-4715
▁Кла	-4716
▁центра	-4717
▁встречи	-4718
щина	-4719
▁остались	-4720
вным	-4721
▁каком	-4722
▁хватит	-4723
▁сложно	-4724
▁ребята	-4725
▁верх	-4726
▁читать	-4727
нью	-4728
▁выстре	-4729
▁ваш	-4730
чались	-4731
▁искрен	-4732
мас	-4733
ub	-4734
▁раза	-4735
▁поднялся	-4736
щался	-4737
лён	-4738
▁любопыт	-4739
бые	-4740
▁сос	-4741
читься	-4742
▁действия	-4743
▁сознания	-4744
▁выбира	-4745
▁остальные	-4746
рёх	-4747
▁Ше	-4748
▁живу	-4749
▁появилась	-4750
ехать	-4751
ation	-4752
тим	-4753
▁некоторое	-4754
вшейся	-4755
рать	-4756
▁одному	-4757
▁ситуации	-4758
▁вдоль	-4759
▁понимаешь	-4760
стоит	-4761
▁сообра	-4762
▁сия	-4763
▁часы	-4764
▁крепко	-4765
джа	-4766
▁выго	-4767
▁счастья	-4768
ot	-4769
▁видели	-4770
▁приятно	-4771
Как	-4772
дри	-4773
▁план	-4774
▁Ой	-4775
рение	-4776
одо	-4777
▁рано	-4778
▁россий	-4779
▁Russian	-4780
▁большая	-4781
тились	-4782
▁полной	-4783
▁прожи	-4784
▁посту	-4785
зой	-4786
▁двумя	-4787
▁девчон	-4788
▁знают	-4789
зация	-4790
▁организ	-4791
кадеми	-4792
▁Дже	-4793
▁экспе	-4794
▁новых	-4795
▁Доб	-4796
▁теп	-4797
вец	-4798
ялся	-4799
▁размыш	-4800
▁восем	-4801
▁Лё	-4802
▁получить	-4803
канчи	-4804
▁коллек	-4805
щении	-4806
▁нашел	-4807
вшее	-4808
▁стороне	-4809
▁сидели	-4810
▁профессо	-4811
ряс	-4812
▁Пой	-4813
▁спусти	-4814
нём	-4815
ОН	-4816
бежал	-4817
▁семья	-4818
▁Прости	-4819
▁капитан	-4820
▁книгу	-4821
▁электро	-4822
▁столе	-4823
▁заметила	-4824
▁хит	-4825
▁бер	-4826
кса	-4827
▁последнее	-4828
▁архи	-4829
▁желания	-4830
пят	-4831
▁посмотри	-4832
▁шан	-4833
▁крыль	-4834
▁строго	-4835
▁Ост	-4836
тную	-4837
▁Какой	-4838
ллю	-4839
вгу	-4840
стные	-4841
▁Москве	-4842
▁буквально	-4843
туре	-4844
жалась	-4845
▁Иногда	-4846
▁живет	-4847
▁изба	-4848
▁нашли	-4849
▁y	-4850
▁стена	-4851
▁бом	-4852
▁Благо	-4853
▁группы	-4854
довать	-4855
▁глубоко	-4856
▁видит	-4857
▁Оно	-4858
▁писать	-4859
▁конкре	-4860
▁уйти	-4861
▁родителей	-4862
ненно	-4863
▁предполо	-4864
▁худож	-4865
▁лежал	-4866
коле	-4867
тного	-4868
▁леса	-4869
▁паро	-4870
мыс	-4871
шта	-4872
▁упал	-4873
▁сидит	-4874
чше	-4875
▁секунду	-4876
стых	-4877
▁O	-4878
рели	-4879
▁пользу	-4880
чалось	-4881
ДО	-4882
▁мастер	-4883
ёк	-4884
полу	-4885
▁реак	-4886
▁этими	-4887
▁сопрово	-4888
пира	-4889
▁обма	-4890
▁Боже	-4891
шками	-4892
гну	-4893
кции	-4894
▁кстати	-4895
кур	-4896
▁государства	-4897
▁большим	-4898
▁припо	-4899
нность	-4900
емых	-4901
Про	-4902
цепи	-4903
▁ходить	-4904
▁твори	-4905
водит	-4906
ЗА	-4907
▁кровать	-4908
хал	-4909
▁закри	-4910
▁описа	-4911
▁предлага	-4912
ссион	-4913
цвет	-4914
▁молит	-4915
▁Же	-4916
▁пить	-4917
▁шеп	-4918
OK	-4919
ус	-4920
▁срав	-4921
▁Стран	-4922
▁подс	-4923
▁жизнью	-4924
▁квартире	-4925
Во	-4926
▁большие	-4927
▁гер	-4928
▁приходилось	-4929
женные	-4930
▁Бер	-4931
▁бросил	-4932
шила	-4933
ry	-4934
▁останавли	-4935
▁письмо	-4936
щала	-4937
▁принять	-4938
слей	-4939
▁платье	-4940
▁живут	-4941
▁президен	-4942
▁Ника	-4943
▁гордо	-4944
алом	-4945
);	-4946
▁совершен	-4947
▁опы	-4948
енной	-4949
▁священ	-4950
▁содержа	-4951
▁взрос	-4952
▁быстрее	-4953
▁води	-4954
▁муд	-4955
▁воздухе	-4956
▁Василь	-4957
дём	-4958
▁зао	-4959
▁брю	-4960
▁=	-4961
▁зная	-4962
▁серьёз	-4963
▁Полу	-4964
ждает	-4965
▁дому	-4966
▁поб	-4967
▁прис	-4968
▁деревья	-4969
тября	-4970
▁ори	-4971
▁ждал	-4972
▁оттуда	-4973
▁незнако	-4974
▁высоко	-4975
▁церков	-4976
▁Ос	-4977
▁достой	-4978
днее	-4979
▁BO	-4980
▁Герма	-4981
▁слезы	-4982
▁плен	-4983
МА	-4984
▁определи	-4985
▁любя	-4986
▁зря	-4987
▁логи	-4988
▁откров	-4989
▁реш	-4990
вёл	-4991
несли	-4992
▁ваго	-4993
▁универ	-4994
рыва	-4995
▁ито	-4996
▁Однажды	-4997
▁Сво	-4998
▁загля	-4999
▁дух	-5000
▁форму	-5001
торы	-5002
▁возмо	-5003
тики	-5004
"!	-5005
▁получается	-5006
▁бла	-5007
рец	-5008
зади	-5009
▁сомне	-5010
▁согласился	-5011
▁осталась	-5012
▁Алексе	-5013
▁Ря	-5014
▁угодно	-5015
▁гне	-5016
меется	-5017
▁вспомина	-5018
▁пож	-5019
▁поговорить	-5020
▁зат	-5021
▁движение	-5022
▁религи	-5023
▁нескольких	-5024
▁старый	-5025
▁окончательно	-5026
▁поми	-5027
нешь	-5028
рыз	-5029
▁эффе	-5030
▁христиан	-5031
ющихся	-5032
▁увели	-5033
пара	-5034
▁веду	-5035
▁территории	-5036
▁препо	-5037
сала	-5038
пель	-5039
▁восста	-5040
▁разобра	-5041
▁количество	-5042
▁машине	-5043
щались	-5044
▁аль	-5045
▁посвя	-5046
То	-5047
▁школу	-5048
сна	-5049
▁типа	-5050
▁вдох	-5051
бля	-5052
пустить	-5053
):	-5054
▁чужо	-5055
▁In	-5056
тке	-5057
▁одея	-5058
▁рю	-5059
онов	-5060
▁ля	-5061
▁BOOK	-5062
▁Три	-5063
Ра	-5064
гром	-5065
▁оза	-5066
▁бабушка	-5067
▁Григо	-5068
▁повез	-5069
рени	-5070
▁поцело	-5071
▁удивля	-5072
вана	-5073
▁машина	-5074
▁отор	-5075
▁отдал	-5076
жную	-5077
▁реки	-5078
нг	-5079
▁раздался	-5080
вшими	-5081
▁de	-5082
ложил	-5083
▁демон	-5084
гнал	-5085
ится	-5086
лел	-5087
▁ресто	-5088
раи	-5089
▁прино	-5090
▁добы	-5091
▁строй	-5092
▁ваши	-5093
▁хотели	-5094
▁результате	-5095
▁пови	-5096
▁францу	-5097
▁вытащи	-5098
▁солне	-5099
▁энергии	-5100
▁око	-5101
▁установ	-5102
▁Сан	-5103
ссия	-5104
▁событий	-5105
▁заве	-5106
▁месяца	-5107
▁десяти	-5108
▁взаимо	-5109
▁евре	-5110
▁хватает	-5111
▁моги	-5112
▁можете	-5113
▁колени	-5114
жав	-5115
▁специально	-5116
iv	-5117
▁ухо	-5118
▁Ай	-5119
ив	-5120
▁произнесла	-5121
вла	-5122
▁Констан	-5123
▁Кор	-5124
▁радость	-5125
▁выйти	-5126
▁Катя	-5127
▁расстоя	-5128
дке	-5129
▁обли	-5130
▁переста	-5131
ченный	-5132
▁легче	-5133
жён	-5134
▁недоста	-5135
▁Интере	-5136
▁писто	-5137
▁бара	-5138
▁иду	-5139
туру	-5140
▁Анто	-5141
▁работает	-5142
нений	-5143
Нет	-5144
▁Pro	-5145
щали	-5146
▁выво	-5147
шок	-5148
▁попросил	-5149
▁смотрели	-5150
▁попытался	-5151
ющиеся	-5152
▁наме	-5153
стречу	-5154
▁камен	-5155
LI	-5156
▁энерги	-5157
редо	-5158
след	-5159
▁вку	-5160
▁Вме	-5161
▁дали	-5162
▁первые	-5163
▁Иль	-5164
▁минуты	-5165
▁работал	-5166
▁системы	-5167
orld	-5168
ЦИ	-5169
▁схвати	-5170
▁думаешь	-5171
▁нарко	-5172
▁радости	-5173
▁рассказать	-5174
▁Ага	-5175
ризо	-5176
▁делал	-5177
▁оцени	-5178
▁Ис	-5179
жаться	-5180
▁одни	-5181
чко	-5182
▁благодаря	-5183
▁хотите	-5184
щаясь	-5185
без	-5186
мотрю	-5187
▁продолжил	-5188
▁персо	-5189
▁оставалось	-5190
енький	-5191
▁множество	-5192
▁моему	-5193
литься	-5194
ual	-5195
▁ока	-5196
▁поду	-5197
▁знания	-5198
▁сказали	-5199
▁ногу	-5200
▁пользо	-5201
▁противополо	-5202
чках	-5203
▁жут	-5204
ческими	-5205
▁покой	-5206
▁посы	-5207
▁доволь	-5208
▁удовлет	-5209
фер	-5210
▁пен	-5211
age	-5212
▁ушла	-5213
▁Оле	-5214
▁Вале	-5215
▁устраи	-5216
▁примерно	-5217
нусь	-5218
▁озе	-5219
более	-5220
▁ниже	-5221
▁никакой	-5222
▁слуша	-5223
▁точки	-5224
ставить	-5225
роди	-5226
▁пройти	-5227
▁Вит	-5228
▁осуще	-5229
▁солнца	-5230
▁несчаст	-5231
▁чь	-5232
▁ребенка	-5233
▁биз	-5234
▁Итак	-5235
льные	-5236
▁новую	-5237
лений	-5238
Вот	-5239
рика	-5240
▁импера	-5241
!".	-5242
▁допол	-5243
▁карма	-5244
▁непло	-5245
АК	-5246
гнула	-5247
виа	-5248
бую	-5249
ели	-5250
▁броса	-5251
ow	-5252
▁основном	-5253
▁сделали	-5254
▁уши	-5255
гался	-5256
▁центре	-5257
▁идёт	-5258
▁фона	-5259
▁сколь	-5260
▁наве	-5261
▁поддержи	-5262
▁Господь	-5263
рования	-5264
▁кло	-5265
▁Пушки	-5266
▁сей	-5267
▁Ольга	-5268
▁набра	-5269
жур	-5270
▁оборо	-5271
NO	-5272
гин	-5273
креп	-5274
пен	-5275
▁доби	-5276
▁жопу	-5277
▁такими	-5278
▁БИБЛИОТ	-5279
▁течение	-5280
▁полков	-5281
ГА	-5282
▁зрения	-5283
▁намер	-5284
тром	-5285
▁обнару	-5286
▁мыш	-5287
▁Арт	-5288
▁подви	-5289
▁период	-5290
▁Земле	-5291
▁Кирил	-5292
жих	-5293
▁еле	-5294
▁подготов	-5295
▁происходя	-5296
▁всякий	-5297
▁отря	-5298
▁форме	-5299
▁проник	-5300
▁семье	-5301
▁Татья	-5302
▁Тво	-5303
стных	-5304
▁везде	-5305
▁прось	-5306
▁облег	-5307
▁непонят	-5308
тол	-5309
▁сущ	-5310
▁расши	-5311
▁Мария	-5312
жке	-5313
▁дре	-5314
зился	-5315
мно	-5316
ченные	-5317
▁яро	-5318
▁Гра	-5319
▁лежит	-5320
▁новое	-5321
▁скром	-5322
▁шею	-5323
Вы	-5324
▁недели	-5325
▁горы	-5326
▁твоего	-5327
▁пола	-5328
▁ушел	-5329
бая	-5330
▁пля	-5331
▁спосо	-5332
▁дорогой	-5333
▁перес	-5334
▁тысячи	-5335
▁пошёл	-5336
▁Po	-5337
▁зве	-5338
ra	-5339
▁опреде	-5340
жнему	-5341
▁доми	-5342
▁порядок	-5343
▁устало	-5344
▁камень	-5345
▁пальцы	-5346
▁голоса	-5347
гим	-5348
▁другими	-5349
▁Щ	-5350
▁Вскоре	-5351
▁рассказал	-5352
▁Марина	-5353
▁сожалению	-5354
▁лез	-5355
▁Нужно	-5356
▁психи	-5357
▁Иванович	-5358
▁твою	-5359
▁мужчин	-5360
▁тему	-5361
▁пребы	-5362
▁труда	-5363
▁трубку	-5364
енных	-5365
▁изда	-5366
▁нах	-5367
▁водо	-5368
▁запол	-5369
дыха	-5370
ступить	-5371
хваты	-5372
▁Сере	-5373
ровала	-5374
зила	-5375
▁усмехнулся	-5376
▁судьба	-5377
▁деви	-5378
▁Мно	-5379
тное	-5380
▁засты	-5381
вности	-5382
нина	-5383
▁радио	-5384
▁аре	-5385
▁поцелу	-5386
▁оке	-5387
▁Ги	-5388
министра	-5389
▁удивился	-5390
▁представить	-5391
▁большую	-5392
▁Рабо	-5393
жают	-5394
▁иг	-5395
▁снег	-5396
▁космо	-5397
▁использу	-5398
▁некоторых	-5399
▁ата	-5400
▁сверху	-5401
шний	-5402
зер	-5403
▁насколько	-5404
▁Павел	-5405
▁выясни	-5406
книг	-5407
ербур	-5408
шнего	-5409
▁тиши	-5410
▁секунд	-5411
вьев	-5412
▁Й	-5413
▁хватало	-5414
▁спор	-5415
рки	-5416
▁экс	-5417
▁побы	-5418
▁руковод	-5419
▁Время	-5420
▁жены	-5421
▁попал	-5422
форми	-5423
вами	-5424
▁охот	-5425
▁БИБЛИОТЕК	-5426
os	-5427
ДИ	-5428
▁Моя	-5429
▁воскли	-5430
▁соста	-5431
▁отрица	-5432
▁собственной	-5433
▁кухню	-5434
▁справи	-5435
юще	-5436
▁("	-5437
▁поп	-5438
меялся	-5439
нской	-5440
▁информации	-5441
кол	-5442
▁ответа	-5443
▁избе	-5444
▁одет	-5445
вят	-5446
▁языке	-5447
▁накло	-5448
▁стой	-5449
▁планеты	-5450
Бо	-5451
▁рассе	-5452
▁перево	-5453
дю	-5454
▁День	-5455
▁замол	-5456
▁ощущение	-5457
енного	-5458
▁автор	-5459
▁терпе	-5460
▁Джо	-5461
▁сопроти	-5462
▁факт	-5463
▁война	-5464
фици	-5465
▁вино	-5466
эль	-5467
▁степени	-5468
▁прислу	-5469
сные	-5470
▁зубы	-5471
▁объяснить	-5472
▁награ	-5473
▁ски	-5474
ченно	-5475
▁Россиянах	-5476
▁незна	-5477
дж	-5478
стным	-5479
▁супру	-5480
▁Дени	-5481
читал	-5482
рала	-5483
▁дыхание	-5484
▁никуда	-5485
▁сестра	-5486
яться	-5487
голо	-5488
пати	-5489
▁звук	-5490
▁деду	-5491
▁душ	-5492
ера	-5493
лял	-5494
▁Два	-5495
▁называ	-5496
▁волну	-5497
▁наверняка	-5498
▁крайней	-5499
▁струк	-5500
▁играть	-5501
гают	-5502
▁убить	-5503
▁лагер	-5504
▁многое	-5505
хали	-5506
думал	-5507
▁Russia	-5508
▁ласко	-5509
рел	-5510
▁специали	-5511
▁добавил	-5512
▁Евг	-5513
▁находился	-5514
ступила	-5515
ис	-5516
▁дождь	-5517
▁свидетель	-5518
куратно	-5519
▁честь	-5520
▁K	-5521
чении	-5522
▁другая	-5523
▁Много	-5524
▁нормально	-5525
ul	-5526
рисо	-5527
▁третий	-5528
▁Ком	-5529
▁хозяин	-5530
ТИ	-5531
▁знамени	-5532
▁кожа	-5533
lect	-5534
▁показа	-5535
▁Михай	-5536
чия	-5537
▁устави	-5538
чалась	-5539
▁World	-5540
▁сигаре	-5541
гнуть	-5542
вос	-5543
▁медици	-5544
▁нака	-5545
▁прокля	-5546
▁развед	-5547
▁природы	-5548
▁процесс	-5549
чиков	-5550
ЕЛ	-5551
▁проек	-5552
▁распоря	-5553
▁иллю	-5554
ственность	-5555
▁Мол	-5556
▁шту	-5557
▁заканчи	-5558
;;;;	-5559
▁Какая	-5560
▁ехать	-5561
▁призы	-5562
тит	-5563
вные	-5564
воры	-5565
▁видом	-5566
сности	-5567
▁обеща	-5568
▁подумать	-5569
▁переме	-5570
▁Мир	-5571
▁положение	-5572
тная	-5573
▁El	-5574
видно	-5575
▁незамет	-5576
▁жу	-5577
▁вор	-5578
▁проблема	-5579
До	-5580
жались	-5581
▁Одно	-5582
▁положил	-5583
кает	-5584
▁Подо	-5585
▁Василий	-5586
▁Дело	-5587
собенно	-5588
зили	-5589
▁Христа	-5590
мены	-5591
▁ката	-5592
▁писал	-5593
▁радостно	-5594
низу	-5595
▁пальцем	-5596
▁вя	-5597
▁провери	-5598
ропи	-5599
▁Иванов	-5600
lor	-5601
▁нашим	-5602
▁Маша	-5603
бах	-5604
▁проте	-5605
поли	-5606
▁старик	-5607
▁пересе	-5608
дон	-5609
ce	-5610
▁очи	-5611
▁влюб	-5612
Со	-5613
▁рад	-5614
▁хороший	-5615
ждал	-5616
стами	-5617
▁которыми	-5618
жена	-5619
▁вперёд	-5620
▁сго	-5621
лами	-5622
▁".	-5623
▁естественно	-5624
▁ке	-5625
▁веру	-5626
▁испуга	-5627
ev	-5628
водить	-5629
▁слё	-5630
▁квартиры	-5631
тным	-5632
шав	-5633
▁учитель	-5634
▁Откуда	-5635
кнуть	-5636
▁хотят	-5637
▁появились	-5638
▁имеют	-5639
▁смогла	-5640
▁навстречу	-5641
▁имен	-5642
нутри	-5643
▁детства	-5644
▁видишь	-5645
лого	-5646
▁будущее	-5647
эта	-5648
ходе	-5649
лением	-5650
▁ничто	-5651
▁эпо	-5652
▁охран	-5653
аги	-5654
▁увидев	-5655
ленная	-5656
ента	-5657
▁горизо	-5658
▁собе	-5659
ссажи	-5660
▁постара	-5661
▁пространство	-5662
ЦИИ	-5663
▁совме	-5664
▁первых	-5665
▁Кры	-5666
▁отде	-5667
▁любить	-5668
▁направился	-5669
доби	-5670
▁прошу	-5671
▁целый	-5672
енью	-5673
▁отме	-5674
▁мечта	-5675
вяза	-5676
▁торже	-5677
▁клет	-5678
▁Нас	-5679
дную	-5680
▁рису	-5681
ностью	-5682
чти	-5683
▁Sy	-5684
прос	-5685
ers	-5686
▁спасибо	-5687
▁Макс	-5688
стного	-5689
▁запомни	-5690
▁показал	-5691
▁Смотри	-5692
▁вашей	-5693
▁эпи	-5694
лал	-5695
зин	-5696
▁вероятно	-5697
▁песни	-5698
▁называется	-5699
▁вряд	-5700
▁Зато	-5701
прежнему	-5702
▁сапо	-5703
▁послыш	-5704
При	-5705
дли	-5706
▁считать	-5707
▁жила	-5708
▁успела	-5709
душ	-5710
▁Her	-5711
пот	-5712
▁воору	-5713
▁вспоми	-5714
▁Це	-5715
жению	-5716
льного	-5717
▁Дей	-5718
▁дочери	-5719
▁пойти	-5720
▁отправля	-5721
▁разда	-5722
▁be	-5723
▁англий	-5724
▁местах	-5725
▁выходит	-5726
▁Гру	-5727
вающий	-5728
▁остаться	-5729
▁бок	-5730
▁анали	-5731
▁растеря	-5732
▁воспоминания	-5733
НОМ	-5734
▁верить	-5735
бал	-5736
жнее	-5737
▁система	-5738
▁отказы	-5739
▁свадь	-5740
альными	-5741
▁мыслей	-5742
▁Говори	-5743
▁убра	-5744
▁спустя	-5745
ваний	-5746
▁Лишь	-5747
мера	-5748
▁!	-5749
▁спут	-5750
▁связь	-5751
▁сидеть	-5752
ist	-5753
муще	-5754
▁обви	-5755
▁зар	-5756
▁прер	-5757
ставил	-5758
▁причина	-5759
▁Вален	-5760
▁реали	-5761
▁Ши	-5762
▁снима	-5763
▁воде	-5764
dn	-5765
▁останов	-5766
▁аро	-5767
сии	-5768
хоже	-5769
РУ	-5770
▁середи	-5771
ново	-5772
▁Господи	-5773
рали	-5774
▁разбира	-5775
▁Ser	-5776
▁тени	-5777
▁делом	-5778
лении	-5779
▁Исто	-5780
▁проявля	-5781
рование	-5782
▁Tay	-5783
жается	-5784
▁КНИ	-5785
▁Taylor	-5786
щет	-5787
ступать	-5788
▁Лена	-5789
зован	-5790
▁осмотре	-5791
▁Вся	-5792
▁he	-5793
▁женщину	-5794
▁ответить	-5795
▁внутрь	-5796
вайте	-5797
чают	-5798
тяну	-5799
▁элемен	-5800
▁Вера	-5801
etry	-5802
крови	-5803
▁задумчиво	-5804
▁прошла	-5805
▁постели	-5806
▁ред	-5807
чилась	-5808
▁приве	-5809
▁широко	-5810
▁Жизнь	-5811
сного	-5812
▁замуж	-5813
▁близко	-5814
▁крова	-5815
▁обратился	-5816
▁угол	-5817
▁уло	-5818
▁§	-5819
▁кле	-5820
▁каждым	-5821
руя	-5822
▁женой	-5823
▁уез	-5824
▁север	-5825
▁Prose	-5826
мать	-5827
▁Poetry	-5828
емого	-5829
▁диа	-5830
▁Int	-5831
▁боже	-5832
▁носи	-5833
▁воин	-5834
▁Больше	-5835
▁каждом	-5836
▁мая	-5837
интересовался	-5838
▁Бар	-5839
▁далее	-5840
▁дека	-5841
▁Россий	-5842
▁Elva	-5843
▁яко	-5844
шат	-5845
▁фрон	-5846
илась	-5847
▁сторонам	-5848
бий	-5849
▁церкви	-5850
▁момента	-5851
▁ярко	-5852
хли	-5853
▁лицу	-5854
▁фут	-5855
▁Ху	-5856
▁прия	-5857
▁ВЕ	-5858
▁правду	-5859
▁указы	-5860
▁жену	-5861
пута	-5862
▁достоин	-5863
кты	-5864
чком	-5865
▁класс	-5866
толи	-5867
женных	-5868
ённо	-5869
стям	-5870
▁самостоя	-5871
веро	-5872
▁жест	-5873
▁эль	-5874
▁ходу	-5875
бин	-5876
▁арти	-5877
▁торго	-5878
▁лето	-5879
▁знак	-5880
▁тюрь	-5881
етесь	-5882
▁знаем	-5883
рма	-5884
▁Тро	-5885
чность	-5886
бою	-5887
▁Земли	-5888
▁лам	-5889
▁пришёл	-5890
ственности	-5891
▁Поз	-5892
▁кате	-5893
▁Москва	-5894
▁РА	-5895
▁разговора	-5896
▁Амери	-5897
сками	-5898
КЕ	-5899
это	-5900
тически	-5901
▁ЗА	-5902
▁стараясь	-5903
ропей	-5904
▁проро	-5905
▁Думаю	-5906
▁баш	-5907
▁Анге	-5908
визи	-5909
▁обстанов	-5910
хнула	-5911
ленного	-5912
каи	-5913
тков	-5914
▁еврей	-5915
▁перего	-5916
▁компании	-5917
далеко	-5918
▁Опять	-5919
▁деревьев	-5920
▁поры	-5921
▁возбу	-5922
▁вида	-5923
▁'	-5924
▁принял	-5925
тию	-5926
ЕНИ	-5927
▁симво	-5928
От	-5929
▁учеб	-5930
▁гал	-5931
▁сель	-5932
тек	-5933
▁чувствую	-5934
dney	-5935
▁вои	-5936
▁Видимо	-5937
чена	-5938
▁Sydney	-5939
▁удовольствием	-5940
▁аккуратно	-5941
▁k	-5942
рачи	-5943
▁привез	-5944
▁Джей	-5945
▁Нем	-5946
▁друж	-5947
▁Света	-5948
▁смени	-5949
▁любила	-5950
▁Максим	-5951
▁монасты	-5952
▁розо	-5953
▁бог	-5954
чаю	-5955
шено	-5956
▁генерал	-5957
▁открыла	-5958
▁повернулся	-5959
▁произнёс	-5960
▁пойм	-5961
▁вообра	-5962
▁профессион	-5963
чуть	-5964
UL	-5965
ые	-5966
чета	-5967
▁оку	-5968
▁направля	-5969
ых	-5970
▁коп	-5971
▁Фо	-5972
▁Авто	-5973
коль	-5974
▁Между	-5975
▁Прави	-5976
ёнка	-5977
▁рассла	-5978
йка	-5979
▁крепо	-5980
▁первое	-5981
▁купить	-5982
рку	-5983
▁будете	-5984
▁мас	-5985
▁русских	-5986
▁on	-5987
▁Петрович	-5988
ЕЛЬ	-5989
▁порой	-5990
Хо	-5991
▁Каз	-5992
▁определя	-5993
лька	-5994
▁отдох	-5995
▁Гре	-5996
▁re	-5997
▁аэ	-5998
▁купи	-5999
▁одина	-6000
ew	-6001
▁боло	-6002
▁ау	-6003
▁доктор	-6004
сное	-6005
град	-6006
▁Джон	-6007
▁Некото	-6008
▁провер	-6009
довало	-6010
LOG	-6011
▁выбор	-6012
бенок	-6013
▁понимая	-6014
тием	-6015
▁зла	-6016
сторон	-6017
цах	-6018
▁населения	-6019
▁накры	-6020
▁заба	-6021
▁вина	-6022
время	-6023
▁старо	-6024
um	-6025
▁электри	-6026
ятся	-6027
това	-6028
сред	-6029
▁зало	-6030
▁сбе	-6031
вшуюся	-6032
ждении	-6033
▁название	-6034
▁красави	-6035
▁приехал	-6036
▁духа	-6037
▁деятельности	-6038
мить	-6039
▁Таким	-6040
рай	-6041
▁говоришь	-6042
▁назвать	-6043
▁духо	-6044
▁ору	-6045
▁раство	-6046
▁восемь	-6047
▁оставить	-6048
ременно	-6049
▁Викто	-6050
▁экра	-6051
стное	-6052
▁Books	-6053
▁понимать	-6054
дея	-6055
▁слушать	-6056
просил	-6057
▁приходит	-6058
▁нашла	-6059
бых	-6060
▁одежду	-6061
вот	-6062
▁касается	-6063
▁Нес	-6064
▁неизвестно	-6065
спубли	-6066
▁Дево	-6067
нилась	-6068
em	-6069
▁стрем	-6070
ступает	-6071
сная	-6072
▁музыка	-6073
дик	-6074
▁вое	-6075
▁средства	-6076
LOGY	-6077
▁Ленин	-6078
деся	-6079
▁отдыха	-6080
▁Здравству	-6081
▁Тол	-6082
▁огромный	-6083
TURO	-6084
TUROLOGY	-6085
▁господин	-6086
▁разде	-6087
▁твоих	-6088
▁пригото	-6089
▁Антон	-6090
▁попасть	-6091
вена	-6092
Так	-6093
▁кухне	-6094
▁лейт	-6095
▁нало	-6096
▁Рус	-6097
▁принес	-6098
леты	-6099
▁Кре	-6100
▁тишина	-6101
▁сути	-6102
приятия	-6103
лле	-6104
чков	-6105
зей	-6106
нте	-6107
▁многочислен	-6108
редото	-6109
▁полага	-6110
▁чувств	-6111
cad	-6112
▁группа	-6113
ly	-6114
▁Любовь	-6115
ib	-6116
▁пальцами	-6117
▁ошиб	-6118
▁корпу	-6119
▁почувствовала	-6120
▁укры	-6121
▁зарабо	-6122
▁дед	-6123
тика	-6124
▁рва	-6125
▁Александра	-6126
жат	-6127
мысли	-6128
▁реги	-6129
▁сби	-6130
▁немедленно	-6131
стил	-6132
▁словом	-6133
▁уте	-6134
▁взо	-6135
▁оказывается	-6136
▁религиоз	-6137
▁лов	-6138
▁тридцать	-6139
▁наслед	-6140
▁прошел	-6141
▁ВО	-6142
▁исключи	-6143
ТЬ	-6144
▁пойду	-6145
▁уровне	-6146
хватив	-6147
▁комплек	-6148
Го	-6149
люсь	-6150
▁дает	-6151
▁Pub	-6152
▁возника	-6153
▁учё	-6154
▁настоящий	-6155
▁авгу	-6156
▁встала	-6157
пка	-6158
Он	-6159
чах	-6160
▁условиях	-6161
itage	-6162
▁изум	-6163
игра	-6164
▁Тру	-6165
▁верно	-6166
▁следова	-6167
▁отношение	-6168
зит	-6169
ellect	-6170
▁наблюда	-6171
▁предстоя	-6172
▁смысла	-6173
▁Heritage	-6174
▁жар	-6175
▁Ed	-6176
▁всём	-6177
▁лейтена	-6178
▁большое	-6179
дера	-6180
▁исте	-6181
летела	-6182
▁пещ	-6183
▁написал	-6184
чам	-6185
стря	-6186
▁довери	-6187
ov	-6188
▁Особенно	-6189
▁проговорил	-6190
▁наиболее	-6191
▁наказа	-6192
▁дверью	-6193
руют	-6194
▁курт	-6195
▁попробо	-6196
▁зри	-6197
▁сзади	-6198
▁отличие	-6199
▁Мальчи	-6200
▁небольшо	-6201
ellectual	-6202
▁суть	-6203
полз	-6204
▁мгновенно	-6205
нька	-6206
челове	-6207
▁звон	-6208
роз	-6209
куль	-6210
▁мен	-6211
ментов	-6212
▁прошлом	-6213
МО	-6214
сан	-6215
▁US	-6216
▁забыть	-6217
говорила	-6218
▁медве	-6219
▁выступ	-6220
▁фамили	-6221
▁первая	-6222
▁незави	-6223
▁спросить	-6224
Ни	-6225
▁попы	-6226
▁що	-6227
▁русский	-6228
▁маленькая	-6229
▁Intellectual	-6230
▁Алекс	-6231
▁дорога	-6232
▁пожа	-6233
▁Геор	-6234
кона	-6235
▁заниматься	-6236
спорт	-6237
▁потерял	-6238
▁посети	-6239
▁моем	-6240
часа	-6241
▁Христо	-6242
▁Например	-6243
кну	-6244
▁клад	-6245
торов	-6246
▁идут	-6247
▁цветы	-6248
▁лестнице	-6249
▁функ	-6250
▁спаса	-6251
голь	-6252
▁ладони	-6253
▁скажет	-6254
рья	-6255
▁Од	-6256
▁богат	-6257
ждая	-6258
▁дай	-6259
жна	-6260
▁ам	-6261
▁прошлого	-6262
▁хлеб	-6263
гети	-6264
▁ворот	-6265
▁катего	-6266
▁бесконечно	-6267
▁пришло	-6268
нимал	-6269
▁светло	-6270
▁поставил	-6271
рилась	-6272
▁спаль	-6273
▁речи	-6274
▁Зи	-6275
▁стату	-6276
МАТ	-6277
мут	-6278
▁прозра	-6279
▁оставил	-6280
енти	-6281
рода	-6282
твор	-6283
лично	-6284
▁девочки	-6285
▁являются	-6286
▁звуки	-6287
▁Солнце	-6288
▁пыталась	-6289
мит	-6290
ИС	-6291
▁СО	-6292
иться	-6293
▁неуда	-6294
шель	-6295
чью	-6296
▁разгляды	-6297
▁Рядом	-6298
▁зала	-6299
▁улицы	-6300
▁языка	-6301
.).	-6302
▁жизнен	-6303
▁ябло	-6304
▁Интересно	-6305
▁лы	-6306
казала	-6307
▁леген	-6308
диль	-6309
▁Несколько	-6310
▁вопросов	-6311
IB	-6312
луч	-6313
▁бумаги	-6314
пок	-6315
▁щи	-6316
▁блю	-6317
▁ух	-6318
▁сложи	-6319
праши	-6320
▁месяцев	-6321
▁туал	-6322
▁бит	-6323
▁существа	-6324
▁впечатление	-6325
ствовали	-6326
▁показать	-6327
▁живой	-6328
▁Эль	-6329
▁начать	-6330
▁вслу	-6331
▁прие	-6332
▁станов	-6333
▁беспокой	-6334
▁лежала	-6335
▁тяжё	-6336
▁королев	-6337
▁косми	-6338
чём	-6339
▁USA	-6340
▁подошёл	-6341
▁беспоко	-6342
▁администра	-6343
▁сорок	-6344
▁воздей	-6345
▁Вне	-6346
ванный	-6347
▁принце	-6348
▁BIB	-6349
откры	-6350
▁ждет	-6351
▁рассказывал	-6352
▁учены	-6353
▁Был	-6354
лова	-6355
бели	-6356
▁Yu	-6357
▁вспомнить	-6358
▁машин	-6359
йки	-6360
▁вере	-6361
▁индиви	-6362
▁пох	-6363
тят	-6364
▁уверенно	-6365
▁спло	-6366
▁ян	-6367
▁бежать	-6368
▁Богом	-6369
▁первом	-6370
▁причем	-6371
▁посла	-6372
▁бю	-6373
▁неба	-6374
▁рублей	-6375
сив	-6376
▁пыль	-6377
▁Лучше	-6378
зар	-6379
▁уют	-6380
▁жаль	-6381
PH	-6382
дё	-6383
▁Вет	-6384
тался	-6385
▁второго	-6386
▁поу	-6387
▁гуля	-6388
▁подвер	-6389
▁дала	-6390
▁темноте	-6391
▁ваше	-6392
▁собесед	-6393
▁нако	-6394
▁мужик	-6395
▁человечества	-6396
▁Вообще	-6397
▁вернулась	-6398
▁чувствовала	-6399
▁ву	-6400
▁сма	-6401
▁делают	-6402
▁телом	-6403
щь	-6404
▁усе	-6405
ждается	-6406
▁пробу	-6407
▁UNO	-6408
▁отры	-6409
Мы	-6410
▁зажи	-6411
▁IIA	-6412
рите	-6413
ULTUROLOGY	-6414
ровна	-6415
чом	-6416
▁шер	-6417
OGRA	-6418
PHY	-6419
▁взор	-6420
▁подъ	-6421
OGRAPHY	-6422
вность	-6423
▁целью	-6424
▁приходится	-6425
▁трёх	-6426
▁иску	-6427
▁уй	-6428
▁миру	-6429
▁партии	-6430
▁техно	-6431
нному	-6432
▁Acad	-6433
▁француз	-6434
OR	-6435
▁хлоп	-6436
енная	-6437
▁сочи	-6438
▁is	-6439
▁вось	-6440
▁крикнул	-6441
▁подар	-6442
▁остается	-6443
▁русского	-6444
▁ИНТ	-6445
▁лоб	-6446
▁присо	-6447
бам	-6448
▁опро	-6449
мене	-6450
▁Первый	-6451
▁запу	-6452
▁компьют	-6453
▁магазин	-6454
▁вашего	-6455
▁Мало	-6456
ДУ	-6457
▁ема	-6458
▁предна	-6459
▁скажи	-6460
▁Понима	-6461
▁мон	-6462
вому	-6463
▁пассажи	-6464
▁Вспо	-6465
▁настроение	-6466
▁намного	-6467
▁гармо	-6468
▁Ке	-6469
▁изго	-6470
мотал	-6471
▁надое	-6472
вилась	-6473
▁прикос	-6474
▁Обы	-6475
▁BIBLI	-6476
▁препода	-6477
▁BIBLIOGRAPHY	-6478
▁Лиза	-6479
печа	-6480
ДЕМ	-6481
▁готова	-6482
шной	-6483
хотвор	-6484
▁кровью	-6485
▁колле	-6486
▁трое	-6487
▁Кру	-6488
▁горь	-6489
енья	-6490
▁бло	-6491
av	-6492
▁свали	-6493
ровки	-6494
▁Земля	-6495
▁холодно	-6496
рони	-6497
лили	-6498
▁разоча	-6499
▁ВС	-6500
тона	-6501
▁главный	-6502
▁правило	-6503
▁отправился	-6504
новения	-6505
логии	-6506
▁чудови	-6507
жное	-6508
▁мнение	-6509
▁мусо	-6510
▁хала	-6511
▁окра	-6512
ктив	-6513
▁самую	-6514
роят	-6515
▁информацию	-6516
▁микро	-6517
▁спасти	-6518
▁Разу	-6519
ённый	-6520
▁ранее	-6521
▁прида	-6522
нях	-6523
чне	-6524
крати	-6525
▁родной	-6526
ванию	-6527
года	-6528
емая	-6529
оны	-6530
▁см	-6531
▁Москву	-6532
сад	-6533
▁кончи	-6534
▁справедливо	-6535
▁дым	-6536
▁Тебя	-6537
▁жале	-6538
щением	-6539
водя	-6540
▁Ца	-6541
▁состав	-6542
чений	-6543
ом	-6544
АР	-6545
▁получится	-6546
вато	-6547
ЕС	-6548
▁решения	-6549
▁формы	-6550
рк	-6551
дение	-6552
▁краю	-6553
▁Привет	-6554
влением	-6555
▁идея	-6556
▁Дмитрий	-6557
▁вздохнула	-6558
щины	-6559
нды	-6560
▁направлении	-6561
▁считал	-6562
▁сало	-6563
!!	-6564
нились	-6565
▁подозре	-6566
▁университ	-6567
▁стену	-6568
▁слад	-6569
шался	-6570
▁таре	-6571
боро	-6572
▁AUSTRALIAN	-6573
▁ею	-6574
▁воскликнул	-6575
▁РОССИЯ	-6576
вия	-6577
▁остальных	-6578
▁отоз	-6579
▁пласти	-6580
▁начальник	-6581
▁пут	-6582
▁скор	-6583
▁Какие	-6584
▁бесконе	-6585
пози	-6586
ственную	-6587
▁роз	-6588
▁Обра	-6589
нек	-6590
▁Нео	-6591
▁зелены	-6592
▁неприят	-6593
▁означает	-6594
▁Весь	-6595
▁класси	-6596
пая	-6597
▁финан	-6598
слов	-6599
▁Хоть	-6600
▁Миша	-6601
нько	-6602
▁Уви	-6603
▁Воро	-6604
▁пишу	-6605
▁шёл	-6606
▁неприятно	-6607
▁прочь	-6608
▁таин	-6609
НЫЙ	-6610
▁берег	-6611
▁Казалось	-6612
▁боюсь	-6613
▁Глаза	-6614
▁гостей	-6615
ниться	-6616
▁останется	-6617
▁уса	-6618
▁дядя	-6619
▁пунк	-6620
▁животных	-6621
▁Знаешь	-6622
▁Кажется	-6623
▁корабль	-6624
▁Мор	-6625
▁спине	-6626
▁Женщина	-6627
▁игры	-6628
▁постав	-6629
няется	-6630
▁войну	-6631
▁крик	-6632
▁реда	-6633
▁Степа	-6634
круг	-6635
ченных	-6636
ствующих	-6637
▁повезло	-6638
▁итоге	-6639
▁памят	-6640
▁самим	-6641
тихо	-6642
жина	-6643
▁судьбы	-6644
▁уга	-6645
▁пуль	-6646
▁сосредото	-6647
рэ	-6648
▁пишет	-6649
▁марш	-6650
!)	-6651
лила	-6652
гут	-6653
▁алкого	-6654
▁приобре	-6655
▁замок	-6656
▁разбу	-6657
сказа	-6658
▁незаметно	-6659
▁ждала	-6660
ak	-6661
▁поль	-6662
▁Борис	-6663
▁массо	-6664
▁уха	-6665
▁вопло	-6666
▁зелё	-6667
лева	-6668
▁вход	-6669
женной	-6670
▁старался	-6671
▁подарок	-6672
▁прошли	-6673
▁вздро	-6674
чению	-6675
▁приду	-6676
ую	-6677
предел	-6678
▁импе	-6679
▁вру	-6680
▁рассказывать	-6681
▁недоум	-6682
сило	-6683
няться	-6684
▁интересу	-6685
▁собирался	-6686
▁побли	-6687
▁вовремя	-6688
▁детстве	-6689
▁полный	-6690
▁приподня	-6691
▁учили	-6692
▁тща	-6693
▁иной	-6694
▁окном	-6695
теллек	-6696
▁CULTUROLOGY	-6697
▁дожд	-6698
зал	-6699
▁бутылку	-6700
ваны	-6701
▁Мать	-6702
▁умо	-6703
▁предела	-6704
▁волос	-6705
первых	-6706
способ	-6707
нского	-6708
бым	-6709
▁мною	-6710
▁понимала	-6711
▁АКА	-6712
▁Настя	-6713
льных	-6714
▁Многие	-6715
ich	-6716
АЛЬ	-6717
чности	-6718
тание	-6719
▁доказа	-6720
▁огляды	-6721
жалуй	-6722
▁службы	-6723
▁Вар	-6724
▁районе	-6725
▁вошел	-6726
▁офице	-6727
ждали	-6728
▁Аф	-6729
▁кап	-6730
▁еже	-6731
▁столу	-6732
▁носом	-6733
▁возвы	-6734
▁рыца	-6735
▁извини	-6736
▁заявил	-6737
▁написано	-6738
▁принялся	-6739
▁Коля	-6740
▁предпри	-6741
ковых	-6742
▁проси	-6743
▁Поли	-6744
▁ничем	-6745
▁Ав	-6746
▁Послед	-6747
▁впрочем	-6748
частью	-6749
▁личности	-6750
пит	-6751
▁пал	-6752
▁кивнула	-6753
▁заранее	-6754
▁здания	-6755
▁целом	-6756
▁РЮ	-6757
риться	-6758
▁Наташа	-6759
дне	-6760
▁АКАДЕМ	-6761
гант	-6762
▁письма	-6763
ял	-6764
▁придума	-6765
ющийся	-6766
▁любовью	-6767
▁услышала	-6768
▁пале	-6769
▁документы	-6770
лович	-6771
рене	-6772
▁договори	-6773
циях	-6774
НТЮ	-6775
▁ребенок	-6776
гент	-6777
▁смех	-6778
▁Скоро	-6779
▁РЮНТЮ	-6780
▁встречу	-6781
▁возраста	-6782
▁Москвы	-6783
▁улыбаясь	-6784
▁культуры	-6785
▁приме	-6786
▁погла	-6787
▁форми	-6788
▁поту	-6789
▁светом	-6790
ливый	-6791
▁журнали	-6792
сных	-6793
енным	-6794
▁разма	-6795
вились	-6796
кнулся	-6797
ым	-6798
▁ниж	-6799
▁шар	-6800
вик	-6801
▁голосе	-6802
▁товарищ	-6803
▁мягко	-6804
▁каждому	-6805
▁Уж	-6806
▁имею	-6807
ваете	-6808
нский	-6809
НАЯ	-6810
▁кусо	-6811
▁площади	-6812
▁увидели	-6813
▁успокаи	-6814
▁Сов	-6815
ереть	-6816
▁использовать	-6817
▁Аб	-6818
▁матер	-6819
влечь	-6820
рхи	-6821
▁посу	-6822
▁выбо	-6823
▁твое	-6824
▁проби	-6825
ой	-6826
▁прием	-6827
▁поинтересовался	-6828
▁кресло	-6829
класс	-6830
кле	-6831
кл	-6832
▁герои	-6833
киды	-6834
▁оча	-6835
ОРМАТ	-6836
вшаяся	-6837
▁самоу	-6838
▁понимает	-6839
▁вещей	-6840
▁тка	-6841
воло	-6842
▁подходит	-6843
▁домаш	-6844
рту	-6845
чник	-6846
▁схватил	-6847
жными	-6848
рительно	-6849
▁ухмы	-6850
▁шах	-6851
▁Израи	-6852
надцати	-6853
▁лист	-6854
▁Петр	-6855
▁улыбка	-6856
▁командир	-6857
▁Мал	-6858
лению	-6859
шенный	-6860
ос	-6861
▁обой	-6862
▁положи	-6863
▁меж	-6864
вных	-6865
народ	-6866
▁ваша	-6867
▁мальчика	-6868
▁верю	-6869
▁проще	-6870
▁поможет	-6871
▁отвра	-6872
▁воздуха	-6873
ВД	-6874
▁действий	-6875
▁талант	-6876
▁нетер	-6877
стого	-6878
вного	-6879
▁лени	-6880
сой	-6881
▁русской	-6882
галась	-6883
▁крайне	-6884
▁долла	-6885
▁Среди	-6886
▁похож	-6887
вшему	-6888
рный	-6889
▁Завтра	-6890
енькая	-6891
▁любом	-6892
ОГ	-6893
лаз	-6894
жаю	-6895
▁разгля	-6896
сот	-6897
▁держать	-6898
▁през	-6899
▁днев	-6900
▁оты	-6901
▁Един	-6902
▁сумас	-6903
▁услу	-6904
▁Гали	-6905
▁ветра	-6906
▁подальше	-6907
пти	-6908
▁метро	-6909
▁поси	-6910
ились	-6911
▁осуществ	-6912
▁точнее	-6913
▁РЕ	-6914
▁заметно	-6915
кинул	-6916
▁реша	-6917
▁великоле	-6918
ква	-6919
▁сотни	-6920
▁металли	-6921
▁Мат	-6922
▁пытается	-6923
▁туман	-6924
▁Дэ	-6925
▁Светла	-6926
рной	-6927
▁расста	-6928
▁фло	-6929
▁праздник	-6930
▁повед	-6931
сып	-6932
▁авиа	-6933
▁Иди	-6934
▁ходил	-6935
вайся	-6936
▁придётся	-6937
▁сож	-6938
▁взяли	-6939
сур	-6940
▁плы	-6941
▁днем	-6942
щалась	-6943
▁значение	-6944
▁любого	-6945
▁причине	-6946
стная	-6947
▁Главное	-6948
▁пробе	-6949
стьян	-6950
▁Второй	-6951
▁обстоятельства	-6952
▁Запа	-6953
▁подзем	-6954
летели	-6955
дняя	-6956
▁верши	-6957
вная	-6958
▁войне	-6959
▁висе	-6960
▁немало	-6961
▁безопасности	-6962
▁Гар	-6963
▁противника	-6964
▁непосред	-6965
рпи	-6966
▁кля	-6967
▁боги	-6968
▁класса	-6969
▁стакан	-6970
▁большинство	-6971
▁выдох	-6972
вале	-6973
чее	-6974
▁обез	-6975
▁новая	-6976
▁хри	-6977
▁тихи	-6978
▁передо	-6979
▁Жан	-6980
▁проща	-6981
▁хозяина	-6982
▁Над	-6983
▁Доро	-6984
▁Мужчина	-6985
▁Дима	-6986
▁преодо	-6987
▁открыть	-6988
▁обру	-6989
▁помог	-6990
▁al	-6991
стен	-6992
тится	-6993
▁думает	-6994
▁противоре	-6995
▁процен	-6996
▁управления	-6997
▁дам	-6998
▁кладби	-6999
▁стоять	-7000
▁прист	-7001
▁пообе	-7002
▁живых	-7003
▁камер	-7004
▁понятия	-7005
▁невиди	-7006
▁un	-7007
питан	-7008
ого	-7009
▁продолжала	-7010
▁коридор	-7011
ат	-7012
▁подда	-7013
▁безза	-7014
ковые	-7015
▁адрес	-7016
▁экспери	-7017
▁огра	-7018
▁готовы	-7019
▁читал	-7020
бина	-7021
▁пога	-7022
▁дерева	-7023
▁задер	-7024
зах	-7025
▁съ	-7026
▁поняли	-7027
▁захотелось	-7028
дию	-7029
▁заби	-7030
гуля	-7031
▁выжи	-7032
кза	-7033
▁Хозя	-7034
▁опла	-7035
▁брига	-7036
делся	-7037
▁стоят	-7038
▁Ад	-7039
▁напомни	-7040
бности	-7041
▁еду	-7042
▁невольно	-7043
▁дежур	-7044
▁диван	-7045
вязы	-7046
▁звали	-7047
▁каче	-7048
▁делали	-7049
тельными	-7050
▁маленькой	-7051
ленную	-7052
▁украин	-7053
вах	-7054
потом	-7055
▁Высо	-7056
▁автомоби	-7057
▁отцом	-7058
▁подходя	-7059
▁поясни	-7060
▁мысленно	-7061
хан	-7062
▁пах	-7063
▁ребят	-7064
▁доступ	-7065
▁Извини	-7066
хая	-7067
▁народу	-7068
▁слышала	-7069
меялась	-7070
низм	-7071
ографи	-7072
▁ногах	-7073
▁удер	-7074
▁макси	-7075
▁уходит	-7076
▁член	-7077
▁последней	-7078
▁жителей	-7079
дце	-7080
▁Согла	-7081
▁Откры	-7082
аа	-7083
щихся	-7084
▁чрез	-7085
мии	-7086
нулось	-7087
вшимся	-7088
▁белый	-7089
▁разор	-7090
▁закрыл	-7091
▁каждую	-7092
▁Расс	-7093
▁валя	-7094
стол	-7095
▁Ответ	-7096
▁таки	-7097
▁говорится	-7098
▁техни	-7099
▁подним	-7100
▁Вселенной	-7101
")	-7102
гно	-7103
суль	-7104
▁ПРО	-7105
▁впи	-7106
▁Бра	-7107
▁исследова	-7108
дилась	-7109
▁сообщил	-7110
▁недалеко	-7111
▁парт	-7112
▁примеру	-7113
▁инте	-7114
▁очереди	-7115
▁подруга	-7116
▁выбро	-7117
нении	-7118
оти	-7119
▁Тер	-7120
▁красиво	-7121
▁шля	-7122
▁ход	-7123
▁силах	-7124
▁смогли	-7125
▁вес	-7126
▁сомнения	-7127
":	-7128
жился	-7129
щенно	-7130
▁герой	-7131
▁окре	-7132
▁предназна	-7133
▁режи	-7134
ёс	-7135
йна	-7136
▁сдержи	-7137
▁срочно	-7138
▁последних	-7139
▁деревне	-7140
▁воли	-7141
▁последнего	-7142
лец	-7143
▁ков	-7144
▁преде	-7145
тельница	-7146
▁масте	-7147
▁исполни	-7148
ённые	-7149
▁мудро	-7150
▁распла	-7151
фика	-7152
▁загадо	-7153
▁заблу	-7154
ковы	-7155
▁Фили	-7156
▁суро	-7157
гнать	-7158
▁делу	-7159
▁сказо	-7160
▁воскрес	-7161
мила	-7162
▁Хоро	-7163
▁настоящее	-7164
▁карман	-7165
▁неп	-7166
▁проме	-7167
▁зависит	-7168
еми	-7169
art	-7170
▁исследо	-7171
▁изменить	-7172
мотреть	-7173
▁девушке	-7174
▁Всем	-7175
▁ждали	-7176
▁поте	-7177
▁футбо	-7178
▁индивиду	-7179
▁склады	-7180
▁ситуацию	-7181
▁взгляда	-7182
дует	-7183
▁миром	-7184
▁края	-7185
▁напоми	-7186
▁Тихо	-7187
▁успели	-7188
мум	-7189
▁полчаса	-7190
The	-7191
▁одежды	-7192
вето	-7193
▁решительно	-7194
▁организации	-7195
▁Дер	-7196
▁Глу	-7197
▁наг	-7198
▁стоило	-7199
▁пиро	-7200
▁народов	-7201
▁маленькие	-7202
▁царя	-7203
▁скре	-7204
▁здра	-7205
▁Сама	-7206
▁СИ	-7207
▁утрен	-7208
▁моно	-7209
▁агре	-7210
гались	-7211
▁срок	-7212
▁деть	-7213
▁поправи	-7214
▁нехо	-7215
▁Татьяна	-7216
▁Пря	-7217
▁книг	-7218
▁любят	-7219
щиков	-7220
▁наста	-7221
▁боялся	-7222
▁позади	-7223
▁симпати	-7224
ждой	-7225
▁Восто	-7226
▁семью	-7227
▁Север	-7228
ющем	-7229
▁упала	-7230
▁Само	-7231
▁вож	-7232
тации	-7233
лилась	-7234
▁танце	-7235
никах	-7236
гаться	-7237
ньку	-7238
▁домов	-7239
▁оставив	-7240
▁благополу	-7241
▁существования	-7242
▁ладонь	-7243
ленным	-7244
мыми	-7245
▁спал	-7246
▁трени	-7247
▁грустно	-7248
▁колхо	-7249
сфаль	-7250
▁звонок	-7251
▁засе	-7252
▁уровень	-7253
▁прон	-7254
▁будущем	-7255
▁искренне	-7256
▁Ирина	-7257
▁узнала	-7258
▁воспринима	-7259
▁предложение	-7260
▁большого	-7261
▁подра	-7262
▁философ	-7263
▁отвечает	-7264
юза	-7265
▁соли	-7266
▁русском	-7267
▁иностран	-7268
▁простой	-7269
▁молодых	-7270
▁блестя	-7271
▁недоволь	-7272
▁Похоже	-7273
▁прогре	-7274
▁r	-7275
▁чинов	-7276
▁согласно	-7277
▁столо	-7278
ец	-7279
▁встретил	-7280
▁внизу	-7281
▁кусок	-7282
▁врач	-7283
▁число	-7284
▁нрав	-7285
▁Петро	-7286
▁кно	-7287
ине	-7288
▁ровно	-7289
▁распах	-7290
▁реальности	-7291
▁двена	-7292
▁автора	-7293
▁Ари	-7294
ствий	-7295
▁другому	-7296
▁больших	-7297
зву	-7298
лив	-7299
▁высокий	-7300
форм	-7301
▁Нау	-7302
▁гроз	-7303
▁наступ	-7304
▁привык	-7305
▁стул	-7306
▁напу	-7307
▁слышно	-7308
бар	-7309
▁вернуть	-7310
▁кош	-7311
пела	-7312
▁будучи	-7313
▁запро	-7314
др	-7315
тельств	-7316
мощ	-7317
▁Дра	-7318
НЕ	-7319
▁рам	-7320
шите	-7321
▁Никогда	-7322
▁бре	-7323
эм	-7324
▁устал	-7325
тками	-7326
▁родился	-7327
гнув	-7328
▁Владими	-7329
стыми	-7330
▁придет	-7331
▁хорошего	-7332
▁Эли	-7333
▁бег	-7334
нете	-7335
дились	-7336
▁уве	-7337
▁черт	-7338
комен	-7339
▁форма	-7340
кови	-7341
▁район	-7342
▁изоб	-7343
точки	-7344
▁Алла	-7345
▁скамей	-7346
▁философи	-7347
▁единственный	-7348
▁веж	-7349
дря	-7350
тором	-7351
МЕ	-7352
▁дорого	-7353
▁библиоте	-7354
ИЙ	-7355
▁расстре	-7356
▁Таня	-7357
▁Утром	-7358
▁называют	-7359
▁сно	-7360
стки	-7361
нутся	-7362
▁сверх	-7363
********	-7364
▁цы	-7365
▁уша	-7366
▁Помни	-7367
▁происходило	-7368
▁берега	-7369
▁километров	-7370
▁этаж	-7371
▁Надеюсь	-7372
▁активно	-7373
▁рыба	-7374
▁разрабо	-7375
хар	-7376
ими	-7377
бый	-7378
▁полицей	-7379
▁нор	-7380
▁вошла	-7381
▁обозна	-7382
ченной	-7383
▁Том	-7384
▁шагов	-7385
▁Такой	-7386
▁компьютер	-7387
Ро	-7388
▁Парень	-7389
▁посреди	-7390
деб	-7391
▁Марк	-7392
▁апре	-7393
▁мамы	-7394
▁яго	-7395
▁форм	-7396
▁вслух	-7397
▁як	-7398
▁забира	-7399
ЛЯ	-7400
▁каждое	-7401
▁имели	-7402
▁уточ	-7403
гри	-7404
▁перео	-7405
▁Слава	-7406
▁Ох	-7407
▁возьми	-7408
▁держал	-7409
▁дав	-7410
нными	-7411
▁интеллек	-7412
нера	-7413
▁роли	-7414
▁знакомый	-7415
▁мозг	-7416
шные	-7417
▁преды	-7418
▁учиться	-7419
▁Егор	-7420
▁Давайте	-7421
▁такси	-7422
▁друзьями	-7423
▁заказ	-7424
▁следом	-7425
▁фир	-7426
ступили	-7427
ници	-7428
▁установи	-7429
▁довер	-7430
▁воле	-7431
▁Вадим	-7432
ПО	-7433
Если	-7434
▁энергети	-7435
емое	-7436
▁книге	-7437
▁суда	-7438
▁немно	-7439
▁ноя	-7440
▁Аня	-7441
▁лиф	-7442
▁поверхности	-7443
▁Миро	-7444
▁отношений	-7445
▁прошептал	-7446
▁Рома	-7447
▁выхода	-7448
▁Илья	-7449
▁Елена	-7450
▁заты	-7451
▁приказал	-7452
▁молодого	-7453
пами	-7454
▁разы	-7455
▁выражение	-7456
▁отношении	-7457
хами	-7458
▁двой	-7459
▁инжен	-7460
нтов	-7461
ith	-7462
▁дар	-7463
бит	-7464
▁полном	-7465
джи	-7466
▁красно	-7467
▁телу	-7468
▁выпу	-7469
▁прихо	-7470
ess	-7471
▁выро	-7472
▁тень	-7473
▁относительно	-7474
▁союз	-7475
поль	-7476
стили	-7477
▁забыла	-7478
ванные	-7479
▁начин	-7480
▁планете	-7481
▁драго	-7482
▁Дале	-7483
▁русские	-7484
мерно	-7485
▁атмо	-7486
▁зарпла	-7487
▁отдела	-7488
▁Кол	-7489
▁нез	-7490
▁отчего	-7491
▁ушли	-7492
▁оскор	-7493
рыми	-7494
▁Жу	-7495
стка	-7496
брасы	-7497
катери	-7498
▁безум	-7499
чины	-7500
▁качества	-7501
▁удовлетвор	-7502
▁выходу	-7503
▁остановилась	-7504
вее	-7505
▁джин	-7506
щики	-7507
▁зер	-7508
▁сильный	-7509
▁превос	-7510
тном	-7511
▁подробно	-7512
ёнок	-7513
▁взглянул	-7514
▁прой	-7515
СЯ	-7516
▁выслу	-7517
▁провали	-7518
▁линии	-7519
▁Слушай	-7520
шишь	-7521
▁Пожалуй	-7522
цкий	-7523
▁чле	-7524
▁подняла	-7525
Все	-7526
▁красивая	-7527
▁провести	-7528
дется	-7529
женная	-7530
▁белые	-7531
сию	-7532
▁картины	-7533
▁очевидно	-7534
зает	-7535
▁лекар	-7536
гор	-7537
▁царь	-7538
▁всяких	-7539
▁Папа	-7540
▁рестора	-7541
начале	-7542
▁впло	-7543
мец	-7544
летия	-7545
▁дерево	-7546
▁будущего	-7547
▁общество	-7548
▁мнению	-7549
▁Джа	-7550
▁страну	-7551
кость	-7552
▁Женя	-7553
▁способен	-7554
▁начинается	-7555
▁имена	-7556
новение	-7557
▁вспомнила	-7558
▁трудо	-7559
▁ударил	-7560
▁темпера	-7561
▁обернулся	-7562
▁циф	-7563
▁ДО	-7564
▁различных	-7565
▁академи	-7566
шении	-7567
▁войска	-7568
▁станции	-7569
▁рей	-7570
гель	-7571
▁слёзы	-7572
▁вре	-7573
▁асфаль	-7574
лика	-7575
▁смотрю	-7576
▁соответству	-7577
▁несо	-7578
альность	-7579
▁оружия	-7580
▁литератур	-7581
▁серьезно	-7582
чайно	-7583
▁зеркало	-7584
▁несу	-7585
рят	-7586
▁Пари	-7587
▁присе	-7588
▁Скорее	-7589
▁социали	-7590
▁книга	-7591
▁настой	-7592
▁старший	-7593
ватель	-7594
▁звезды	-7595
▁штур	-7596
▁Спо	-7597
▁грубо	-7598
▁неплохо	-7599
▁похоро	-7600
▁профессор	-7601
▁изви	-7602
йн	-7603
▁детьми	-7604
▁дис	-7605
зне	-7606
▁ваших	-7607
ary	-7608
▁рома	-7609
SW	-7610
▁приблизи	-7611
▁Костя	-7612
▁пробор	-7613
▁объясня	-7614
▁уровня	-7615
лим	-7616
циями	-7617
льше	-7618
▁словам	-7619
▁парни	-7620
▁участие	-7621
жок	-7622
▁бизнес	-7623
темати	-7624
▁обоих	-7625
▁преобра	-7626
▁Долго	-7627
▁надеюсь	-7628
жкой	-7629
кипа	-7630
▁янва	-7631
▁цветов	-7632
▁Бело	-7633
▁огня	-7634
▁роско	-7635
▁проснулся	-7636
альности	-7637
скочила	-7638
▁смело	-7639
▁картину	-7640
++++	-7641
▁культур	-7642
▁мета	-7643
▁ворота	-7644
дело	-7645
▁дья	-7646
▁соеди	-7647
▁пости	-7648
▁семи	-7649
▁выру	-7650
писи	-7651
▁пытались	-7652
словно	-7653
▁частью	-7654
▁главе	-7655
op	-7656
▁обществе	-7657
▁оцен	-7658
▁Германии	-7659
▁Стар	-7660
▁центр	-7661
▁наверно	-7662
▁сцена	-7663
▁приклю	-7664
льная	-7665
жности	-7666
▁хлеба	-7667
▁вампи	-7668
▁жалко	-7669
▁снял	-7670
▁удал	-7671
ствовала	-7672
ыр	-7673
▁ряд	-7674
▁Почти	-7675
▁Наталь	-7676
▁горло	-7677
▁задумы	-7678
мь	-7679
▁наружу	-7680
▁Хра	-7681
▁ощущения	-7682
▁состояния	-7683
▁условия	-7684
▁существу	-7685
▁труд	-7686
▁некогда	-7687
брь	-7688
▁претен	-7689
щика	-7690
▁прохо	-7691
▁природе	-7692
▁Веро	-7693
▁наря	-7694
▁сказано	-7695
▁Дома	-7696
▁Говоря	-7697
▁содержи	-7698
▁Дол	-7699
ссов	-7700
▁куста	-7701
▁король	-7702
▁стихотвор	-7703
яз	-7704
▁экза	-7705
▁Сталин	-7706
▁ГО	-7707
ждений	-7708
мился	-7709
мости	-7710
вающие	-7711
▁Глава	-7712
▁набира	-7713
▁пистолет	-7714
▁образу	-7715
▁тщательно	-7716
▁Кирилл	-7717
▁предыду	-7718
▁бесполез	-7719
▁РУ	-7720
жом	-7721
▁копи	-7722
▁множе	-7723
ённых	-7724
▁якобы	-7725
▁Мед	-7726
бушка	-7727
▁Зак	-7728
▁нат	-7729
▁счастью	-7730
▁старой	-7731
▁ледя	-7732
▁продви	-7733
▁заинтересо	-7734
▁опе	-7735
див	-7736
тивно	-7737
▁врага	-7738
▁Vol	-7739
▁Некоторые	-7740
▁отсутствие	-7741
▁губами	-7742
▁сад	-7743
▁сравни	-7744
▁старого	-7745
▁удовольствие	-7746
].	-7747
▁одоб	-7748
▁шанс	-7749
▁рюкза	-7750
▁корабля	-7751
▁контак	-7752
▁Учи	-7753
▁контра	-7754
нти	-7755
▁Наш	-7756
▁возгла	-7757
▁входа	-7758
▁фоне	-7759
▁Нина	-7760
▁молчали	-7761
▁ходили	-7762
▁ожидал	-7763
рена	-7764
▁заболе	-7765
▁вещь	-7766
▁здоровье	-7767
▁Цен	-7768
▁шести	-7769
фов	-7770
▁това	-7771
▁увле	-7772
суда	-7773
чья	-7774
▁Роб	-7775
жусь	-7776
▁губ	-7777
▁фев	-7778
▁видя	-7779
▁упря	-7780
▁Ar	-7781
▁отдать	-7782
▁церковь	-7783
▁секрета	-7784
лени	-7785
▁трав	-7786
▁сексу	-7787
благо	-7788
вятся	-7789
гани	-7790
▁планы	-7791
▁поисках	-7792
▁зависимо	-7793
▁it	-7794
воров	-7795
рье	-7796
▁автома	-7797
▁идеи	-7798
▁Андрея	-7799
ПА	-7800
▁оч	-7801
▁глупы	-7802
▁ключ	-7803
▁создать	-7804
чев	-7805
▁едино	-7806
▁Дон	-7807
▁отцу	-7808
th	-7809
нета	-7810
▁кармана	-7811
▁телевизо	-7812
▁блу	-7813
ill	-7814
лии	-7815
▁человеческой	-7816
шный	-7817
▁Тор	-7818
▁театра	-7819
▁поворачи	-7820
▁спец	-7821
▁месту	-7822
▁перспе	-7823
▁свободы	-7824
▁исключительно	-7825
жек	-7826
▁торопи	-7827
сным	-7828
▁музыку	-7829
▁услышать	-7830
▁появляется	-7831
мену	-7832
дались	-7833
▁китай	-7834
▁Государ	-7835
▁Екатери	-7836
▁крити	-7837
▁Пло	-7838
▁дива	-7839
▁свободу	-7840
▁нашёл	-7841
▁прохла	-7842
▁роста	-7843
▁произно	-7844
▁осла	-7845
▁спрашивает	-7846
клад	-7847
щами	-7848
▁лете	-7849
▁кресле	-7850
▁сухо	-7851
▁плане	-7852
▁Бро	-7853
▁Вал	-7854
вторых	-7855
▁Господа	-7856
▁организа	-7857
части	-7858
▁Витали	-7859
▁прошлое	-7860
▁новым	-7861
▁принимать	-7862
ковым	-7863
▁болезни	-7864
▁заж	-7865
бан	-7866
▁лен	-7867
▁насме	-7868
влению	-7869
▁городу	-7870
▁нашему	-7871
женного	-7872
▁съез	-7873
далась	-7874
жность	-7875
рики	-7876
▁законо	-7877
▁результат	-7878
▁вле	-7879
пускать	-7880
▁юноша	-7881
роваться	-7882
рас	-7883
▁МИ	-7884
▁психологи	-7885
▁забро	-7886
мню	-7887
▁преи	-7888
квозь	-7889
▁глубине	-7890
ворот	-7891
▁организо	-7892
вие	-7893
пети	-7894
▁катастро	-7895
▁зда	-7896
▁Кристи	-7897
▁употре	-7898
чна	-7899
▁коммуни	-7900
▁ОТ	-7901
▁князь	-7902
пало	-7903
▁приоткры	-7904
▁сумасшед	-7905
▁обещал	-7906
▁заро	-7907
▁шее	-7908
▁сбор	-7909
▁славя	-7910
▁подели	-7911
▁NSW	-7912
▁дур	-7913
▁Кото	-7914
▁вошли	-7915
▁происхо	-7916
▁забу	-7917
▁затя	-7918
▁Сне	-7919
▁воспользо	-7920
▁кресла	-7921
▁началась	-7922
ter	-7923
▁вариант	-7924
if	-7925
клина	-7926
▁нынеш	-7927
▁Никита	-7928
гай	-7929
▁st	-7930
дете	-7931
▁маму	-7932
▁здорово	-7933
▁возрасте	-7934
▁терро	-7935
туи	-7936
▁Более	-7937
▁языком	-7938
дности	-7939
▁птицы	-7940
моему	-7941
ходите	-7942
▁поверить	-7943
▁кабинета	-7944
вода	-7945
▁слове	-7946
▁КА	-7947
▁Ибо	-7948
▁просил	-7949
▁непременно	-7950
ропливо	-7951
▁перевер	-7952
▁прими	-7953
▁умы	-7954
шают	-7955
▁потен	-7956
▁пространства	-7957
▁век	-7958
▁констру	-7959
▁транс	-7960
▁хватило	-7961
▁Несмотря	-7962
▁Зе	-7963
товой	-7964
Са	-7965
▁неле	-7966
▁обед	-7967
▁отста	-7968
ич	-7969
▁друже	-7970
няв	-7971
▁Буду	-7972
▁волю	-7973
▁раско	-7974
ac	-7975
сюду	-7976
ербург	-7977
паться	-7978
▁понадоби	-7979
▁Ль	-7980
▁МО	-7981
▁европей	-7982
▁палец	-7983
▁расскажу	-7984
ud	-7985
емым	-7986
▁отчет	-7987
▁пятнадцать	-7988
▁бого	-7989
▁человеческого	-7990
▁колду	-7991
цеп	-7992
▁встать	-7993
▁эволю	-7994
▁захва	-7995
▁сумку	-7996
дора	-7997
▁расти	-7998
▁ужаса	-7999
влений	-8000
▁камни	-8001
дови	-8002
▁нере	-8003
▁директор	-8004
▁фаши	-8005
▁сбо	-8006
▁огромные	-8007
▁догады	-8008
▁обита	-8009
▁приготов	-8010
▁Але	-8011
▁команду	-8012
▁неот	-8013
▁здание	-8014
▁кабинете	-8015
▁стремительно	-8016
est	-8017
▁КУ	-8018
▁судя	-8019
▁девушек	-8020
пили	-8021
▁Такое	-8022
▁прийти	-8023
▁Ивана	-8024
▁Украины	-8025
нией	-8026
чиком	-8027
днев	-8028
жди	-8029
▁маршру	-8030
▁бала	-8031
ющему	-8032
▁Россию	-8033
жник	-8034
лились	-8035
▁замы	-8036
▁Новый	-8037
▁Иисус	-8038
▁Смер	-8039
▁прото	-8040
▁становилось	-8041
ун	-8042
▁старые	-8043
▁неизбе	-8044
UD	-8045
▁Кни	-8046
▁невероят	-8047
▁прозву	-8048
▁лабора	-8049
▁присоеди	-8050
▁ждут	-8051
плю	-8052
▁потря	-8053
▁черно	-8054
▁ХХ	-8055
▁какими	-8056
ялась	-8057
▁длинные	-8058
▁написать	-8059
шенные	-8060
зок	-8061
▁яй	-8062
▁Исти	-8063
▁Леони	-8064
▁Арка	-8065
▁бывало	-8066
▁Ус	-8067
▁началось	-8068
▁попросила	-8069
ляет	-8070
▁протянула	-8071
РОД	-8072
ходим	-8073
▁you	-8074
скольз	-8075
▁реальность	-8076
▁чемо	-8077
стик	-8078
!",	-8079
▁скажешь	-8080
▁погло	-8081
лог	-8082
СТИ	-8083
▁тур	-8084
▁Лари	-8085
▁хищ	-8086
▁председа	-8087
▁Мэ	-8088
▁полюби	-8089
▁привести	-8090
▁проходит	-8091
▁страна	-8092
▁двадцати	-8093
ралле	-8094
▁рекла	-8095
ненный	-8096
▁безраз	-8097
ссию	-8098
▁поднялась	-8099
▁кора	-8100
▁лежали	-8101
▁бросился	-8102
▁тропи	-8103
▁поставить	-8104
приз	-8105
▁постра	-8106
▁называли	-8107
▁собственного	-8108
надца	-8109
▁умереть	-8110
нив	-8111
▁грома	-8112
▁значения	-8113
▁маме	-8114
ложить	-8115
▁художе	-8116
▁названием	-8117
довали	-8118
▁деревни	-8119
▁бь	-8120
▁Дальше	-8121
▁рит	-8122
▁полю	-8123
ционной	-8124
▁взгляды	-8125
▁перестал	-8126
рив	-8127
▁аэро	-8128
бла	-8129
рек	-8130
▁постель	-8131
▁судьбу	-8132
дир	-8133
няют	-8134
▁следы	-8135
▁Совсем	-8136
▁задумался	-8137
честву	-8138
▁рассчиты	-8139
▁считает	-8140
▁слышать	-8141
▁вторая	-8142
▁иско	-8143
▁живёт	-8144
▁патри	-8145
кер	-8146
▁сф	-8147
▁суд	-8148
▁остальное	-8149
ъек	-8150
▁Мер	-8151
▁that	-8152
скал	-8153
▁черные	-8154
ab	-8155
rit	-8156
▁фин	-8157
руется	-8158
щаются	-8159
Па	-8160
▁обнаружил	-8161
▁летом	-8162
▁паца	-8163
▁подно	-8164
гивая	-8165
▁дополни	-8166
▁was	-8167
Те	-8168
▁эн	-8169
▁Дверь	-8170
▁Вокруг	-8171
▁Девочка	-8172
▁Тя	-8173
▁устрой	-8174
▁вернулись	-8175
▁необходимости	-8176
▁лихо	-8177
▁слез	-8178
▁давайте	-8179
▁серебря	-8180
жном	-8181
▁Бор	-8182
▁спуска	-8183
стало	-8184
▁пороге	-8185
▁расхо	-8186
▁промол	-8187
▁размер	-8188
зон	-8189
▁колен	-8190
▁главным	-8191
▁робо	-8192
▁уважа	-8193
▁плани	-8194
хие	-8195
▁Иначе	-8196
▁встрече	-8197
гни	-8198
▁Иоан	-8199
▁Эн	-8200
тивной	-8201
▁женщиной	-8202
▁удивленно	-8203
▁провед	-8204
вьте	-8205
▁Обе	-8206
▁заметить	-8207
▁побежал	-8208
▁инсти	-8209
▁хвост	-8210
▁отпусти	-8211
гнали	-8212
▁капли	-8213
▁слушал	-8214
▁детям	-8215
▁текст	-8216
СТЬ	-8217
▁правой	-8218
жья	-8219
▁дово	-8220
чис	-8221
▁ссы	-8222
▁Снова	-8223
▁покра	-8224
исто	-8225
▁вери	-8226
вится	-8227
▁отка	-8228
▁фильм	-8229
▁отлично	-8230
щиеся	-8231
▁этаже	-8232
▁сыгра	-8233
▁приехали	-8234
фей	-8235
тались	-8236
▁Такие	-8237
▁телефону	-8238
▁уходить	-8239
▁подобное	-8240
кнув	-8241
▁пет	-8242
ждением	-8243
▁пли	-8244
▁разом	-8245
▁старше	-8246
▁закончил	-8247
▁прочим	-8248
▁обло	-8249
жик	-8250
▁похожи	-8251
▁цивилизации	-8252
▁an	-8253
▁хорош	-8254
ликнула	-8255
блу	-8256
▁Кара	-8257
▁Ребя	-8258
▁убил	-8259
▁распростра	-8260
▁принципе	-8261
▁очер	-8262
▁ногой	-8263
▁book	-8264
▁выпить	-8265
▁основе	-8266
▁побо	-8267
▁братья	-8268
▁развали	-8269
▁приба	-8270
▁Интер	-8271
▁стыдно	-8272
▁женщине	-8273
▁благород	-8274
▁начальника	-8275
▁молодые	-8276
ндида	-8277
▁отпуск	-8278
▁Тур	-8279
▁соблю	-8280
ческому	-8281
▁потребо	-8282
▁блед	-8283
зала	-8284
▁Точно	-8285
▁поворо	-8286
▁Фё	-8287
▁связы	-8288
▁бабушки	-8289
▁кали	-8290
▁дабы	-8291
▁мучи	-8292
▁согре	-8293
▁Эх	-8294
ченным	-8295
▁обнял	-8296
▁белой	-8297
АН	-8298
▁обыкнов	-8299
▁пожале	-8300
▁удивительно	-8301
▁стер	-8302
▁врагов	-8303
▁мораль	-8304
▁НО	-8305
▁покупа	-8306
▁Буд	-8307
▁радостью	-8308
фан	-8309
▁Гро	-8310
▁молчал	-8311
варь	-8312
▁аппара	-8313
ЛЕК	-8314
▁жители	-8315
▁веще	-8316
▁словах	-8317
▁отвечал	-8318
▁Николая	-8319
▁Пора	-8320
▁мамой	-8321
▁нигде	-8322
ведь	-8323
▁Юрий	-8324
ap	-8325
▁имела	-8326
▁мужем	-8327
гран	-8328
▁музык	-8329
▁Влад	-8330
шив	-8331
▁крестьян	-8332
▁Прошло	-8333
щений	-8334
▁лопа	-8335
▁СЕР	-8336
▁государство	-8337
▁всякого	-8338
▁сх	-8339
зья	-8340
▁осле	-8341
▁колон	-8342
ума	-8343
стественно	-8344
▁люд	-8345
▁спек	-8346
▁огромной	-8347
▁фотографии	-8348
▁данный	-8349
жко	-8350
▁расстро	-8351
▁подобра	-8352
чаться	-8353
тива	-8354
▁передви	-8355
nd	-8356
▁персона	-8357
точку	-8358
▁Англи	-8359
мур	-8360
▁рада	-8361
била	-8362
▁сбро	-8363
▁передать	-8364
▁Москов	-8365
▁остановить	-8366
▁раб	-8367
▁шпи	-8368
дность	-8369
▁вен	-8370
талки	-8371
рились	-8372
▁Какое	-8373
▁аромат	-8374
▁основа	-8375
▁сержа	-8376
▁произведения	-8377
▁уми	-8378
▁убира	-8379
▁поменя	-8380
▁ступень	-8381
тями	-8382
мара	-8383
▁Помо	-8384
▁вдво	-8385
▁Словно	-8386
▁Посмотри	-8387
тории	-8388
▁промыш	-8389
▁волосами	-8390
▁купил	-8391
▁вар	-8392
▁надежды	-8393
▁вете	-8394
▁писатель	-8395
▁вытя	-8396
▁неведо	-8397
▁чт	-8398
▁обнима	-8399
▁находились	-8400
▁существование	-8401
▁развитие	-8402
СКА	-8403
▁удали	-8404
шни	-8405
▁Хи	-8406
▁Кос	-8407
▁чужой	-8408
▁бытия	-8409
ерь	-8410
настоя	-8411
жны	-8412
▁Странно	-8413
▁искусства	-8414
▁спя	-8415
ялись	-8416
▁поезд	-8417
▁привлека	-8418
ВЕ	-8419
▁точку	-8420
▁помнишь	-8421
▁кирпи	-8422
▁виноват	-8423
▁доли	-8424
▁объеди	-8425
меи	-8426
▁преодоле	-8427
▁думая	-8428
▁вышло	-8429
▁бессмер	-8430
лень	-8431
▁поздра	-8432
▁своя	-8433
▁ов	-8434
ждают	-8435
▁поговори	-8436
▁желе	-8437
▁девочку	-8438
▁оказаться	-8439
▁отношению	-8440
▁избран	-8441
▁скорость	-8442
▁Цар	-8443
ствительно	-8444
▁пило	-8445
▁полковник	-8446
▁делаешь	-8447
▁чувствовать	-8448
сво	-8449
▁революции	-8450
▁тоном	-8451
ппа	-8452
▁сестры	-8453
▁последова	-8454
▁Небе	-8455
▁тащи	-8456
▁умерла	-8457
▁оставаться	-8458
▁подобно	-8459
ственном	-8460
▁мировой	-8461
▁мясо	-8462
▁ужасно	-8463
▁сентября	-8464
▁Чтоб	-8465
свя	-8466
▁соро	-8467
▁прошептала	-8468
▁Нач	-8469
▁зача	-8470
▁спит	-8471
▁терп	-8472
▁Алиса	-8473
our	-8474
▁Эм	-8475
шается	-8476
моро	-8477
▁компью	-8478
.:	-8479
▁крово	-8480
▁пространстве	-8481
мия	-8482
▁красоты	-8483
▁Дай	-8484
▁описы	-8485
▁Божь	-8486
▁дают	-8487
▁возвращаться	-8488
▁жене	-8489
делать	-8490
СТВА	-8491
"-	-8492
сек	-8493
ниями	-8494
▁уехал	-8495
▁короля	-8496
▁пожела	-8497
▁душой	-8498
▁вынужден	-8499
Та	-8500
▁начинают	-8501
▁разумеется	-8502
▁Твор	-8503
▁насторо	-8504
▁спро	-8505
МП	-8506
Ми	-8507
▁согласилась	-8508
▁перене	-8509
▁Сергея	-8510
▁губер	-8511
совалась	-8512
▁математи	-8513
▁угла	-8514
енях	-8515
▁волны	-8516
▁законы	-8517
▁дождя	-8518
нением	-8519
▁науки	-8520
мысленно	-8521
▁производи	-8522
▁удивилась	-8523
хах	-8524
▁получили	-8525
тька	-8526
женным	-8527
▁неправи	-8528
▁Божи	-8529
▁пру	-8530
▁рассказала	-8531
▁молодая	-8532
▁разговаривать	-8533
вке	-8534
мел	-8535
ните	-8536
▁обор	-8537
▁Коман	-8538
▁потенци	-8539
▁подобных	-8540
▁середине	-8541
▁ство	-8542
▁Оля	-8543
▁Оде	-8544
ale	-8545
▁хорошее	-8546
▁Ци	-8547
бежала	-8548
▁опасности	-8549
▁брови	-8550
▁проверить	-8551
▁значительно	-8552
▁двора	-8553
▁москов	-8554
▁действовать	-8555
▁даст	-8556
▁офицер	-8557
▁нов	-8558
ул	-8559
жье	-8560
щают	-8561
▁фар	-8562
▁проез	-8563
▁правила	-8564
▁захло	-8565
▁нелов	-8566
▁II	-8567
▁ищу	-8568
▁выделя	-8569
▁картина	-8570
▁черный	-8571
крой	-8572
▁распа	-8573
▁производства	-8574
▁сми	-8575
▁Роман	-8576
мами	-8577
льное	-8578
▁недолго	-8579
▁дне	-8580
▁августа	-8581
▁солн	-8582
eyev	-8583
▁раски	-8584
рованный	-8585
дав	-8586
ждаться	-8587
▁ПОД	-8588
▁бывший	-8589
▁годов	-8590
▁мужчину	-8591
ляли	-8592
▁подруги	-8593
тара	-8594
▁Нельзя	-8595
▁левой	-8596
▁лиц	-8597
▁последу	-8598
▁непонятно	-8599
дному	-8600
▁попытки	-8601
▁Бли	-8602
▁аж	-8603
чеством	-8604
▁лейтенант	-8605
▁принято	-8606
▁)	-8607
бай	-8608
▁находилась	-8609
▁насы	-8610
вающей	-8611
мость	-8612
▁веры	-8613
▁всякие	-8614
шены	-8615
▁зате	-8616
▁состоит	-8617
▁называть	-8618
бко	-8619
▁wh	-8620
льки	-8621
чалу	-8622
▁свеже	-8623
▁оте	-8624
▁масса	-8625
▁случаях	-8626
▁желая	-8627
▁кандида	-8628
▁ситуация	-8629
▁ушёл	-8630
▁Сердце	-8631
▁пятьдесят	-8632
▁уму	-8633
▁Дом	-8634
шевели	-8635
ДЕ	-8636
живать	-8637
▁твоим	-8638
щены	-8639
▁числа	-8640
ЛОГ	-8641
▁адре	-8642
▁призн	-8643
▁слышу	-8644
▁зах	-8645
▁рисо	-8646
дие	-8647
▁преле	-8648
▁тетра	-8649
тих	-8650
▁засу	-8651
чивая	-8652
бет	-8653
▁любимый	-8654
тех	-8655
▁Всего	-8656
▁Христос	-8657
▁занятия	-8658
▁позвонил	-8659
▁Вася	-8660
od	-8661
лкой	-8662
еремо	-8663
▁крылья	-8664
▁паци	-8665
▁нераз	-8666
▁Иисуса	-8667
▁следующее	-8668
▁истре	-8669
ционного	-8670
▁бед	-8671
▁плотно	-8672
вающих	-8673
▁мыслями	-8674
ue	-8675
▁лука	-8676
▁добрый	-8677
гому	-8678
▁собака	-8679
▁интелли	-8680
▁главного	-8681
▁половину	-8682
вшееся	-8683
бей	-8684
жней	-8685
ющимся	-8686
▁хорошая	-8687
▁Центра	-8688
▁требует	-8689
ЛЕН	-8690
▁япо	-8691
▁выпуск	-8692
▁сокра	-8693
▁операции	-8694
▁отдохнуть	-8695
▁сюжет	-8696
▁помогать	-8697
▁se	-8698
▁ребёнка	-8699
▁республи	-8700
▁коня	-8701
▁нега	-8702
▁растя	-8703
▁держи	-8704
▁любимой	-8705
ковый	-8706
зости	-8707
▁My	-8708
▁примет	-8709
▁холод	-8710
▁нравилось	-8711
▁окну	-8712
енному	-8713
▁надежда	-8714
▁искал	-8715
▁предполага	-8716
▁появилось	-8717
▁православ	-8718
▁ужин	-8719
▁способно	-8720
▁страда	-8721
▁дверей	-8722
▁именем	-8723
▁общения	-8724
▁изменения	-8725
▁приста	-8726
▁наблюдал	-8727
▁концу	-8728
▁Рай	-8729
▁остатки	-8730
▁иска	-8731
▁new	-8732
▁Вечером	-8733
Бе	-8734
▁Ири	-8735
▁округ	-8736
▁изменя	-8737
▁Серё	-8738
▁поближе	-8739
▁водки	-8740
▁сопротивля	-8741
▁пост	-8742
▁быст	-8743
▁грех	-8744
чивать	-8745
▁надпись	-8746
ину	-8747
▁попыталась	-8748
▁нервно	-8749
льным	-8750
▁Nur	-8751
▁гим	-8752
▁незнаком	-8753
▁разобраться	-8754
▁Стре	-8755
▁экипа	-8756
▁пойдем	-8757
▁объе	-8758
жалось	-8759
▁хорошие	-8760
▁пей	-8761
▁Будь	-8762
послед	-8763
▁великий	-8764
▁уско	-8765
тивные	-8766
▁февра	-8767
ХХ	-8768
▁двоих	-8769
вающего	-8770
тивный	-8771
▁погре	-8772
▁озера	-8773
▁ООН	-8774
▁контроли	-8775
хватила	-8776
▁Руси	-8777
тивных	-8778
▁понравилось	-8779
ченного	-8780
▁твердо	-8781
вичу	-8782
▁общего	-8783
▁Джу	-8784
▁КП	-8785
▁Причем	-8786
▁загляды	-8787
▁поток	-8788
▁удивление	-8789
▁соору	-8790
▁Рим	-8791
▁покачал	-8792
вказ	-8793
чились	-8794
▁внешно	-8795
▁поэт	-8796
▁отпу	-8797
▁встретиться	-8798
▁теми	-8799
ющегося	-8800
чин	-8801
тком	-8802
▁считают	-8803
нялись	-8804
▁закричал	-8805
▁графи	-8806
▁делала	-8807
▁Дети	-8808
ёте	-8809
▁назвал	-8810
хам	-8811
▁Дед	-8812
▁стекло	-8813
фера	-8814
бке	-8815
▁холодиль	-8816
▁неудоб	-8817
▁ИН	-8818
▁шагом	-8819
▁получила	-8820
▁огромное	-8821
▁забот	-8822
▁щу	-8823
▁интересом	-8824
▁Жа	-8825
▁выглядит	-8826
ЗЫ	-8827
▁Спу	-8828
ванных	-8829
▁Nureyev	-8830
▁наблюдать	-8831
СЛЕ	-8832
▁хитро	-8833
▁директора	-8834
▁подняться	-8835
▁подпи	-8836
▁покоя	-8837
▁девушкой	-8838
▁коз	-8839
▁хмы	-8840
душно	-8841
▁коротко	-8842
даться	-8843
▁банди	-8844
шаться	-8845
▁красивые	-8846
споко	-8847
▁with	-8848
▁способности	-8849
▁масшта	-8850
сый	-8851
▁взро	-8852
▁самих	-8853
▁удара	-8854
▁видим	-8855
калы	-8856
менить	-8857
▁заки	-8858
▁Скажи	-8859
▁гигант	-8860
▁попробу	-8861
▁собрались	-8862
▁слава	-8863
▁Вместе	-8864
▁конфлик	-8865
▁сыном	-8866
▁указал	-8867
▁ловко	-8868
▁мёрт	-8869
▁средств	-8870
▁визи	-8871
▁любое	-8872
▁песня	-8873
▁Вика	-8874
▁вернее	-8875
▁характери	-8876
▁Ада	-8877
▁рост	-8878
ктором	-8879
отно	-8880
говор	-8881
новой	-8882
▁-"	-8883
▁вашу	-8884
▁Говорят	-8885
бир	-8886
▁сердцем	-8887
тельном	-8888
▁высокой	-8889
▁пан	-8890
▁очки	-8891
▁институт	-8892
▁боялась	-8893
низма	-8894
▁шаги	-8895
сятся	-8896
Ве	-8897
ологии	-8898
ченко	-8899
▁ЕВ	-8900
▁реке	-8901
▁Вроде	-8902
▁уси	-8903
▁знакомых	-8904
▁подошли	-8905
▁вред	-8906
ткой	-8907
▁виз	-8908
▁Неожида	-8909
▁XV	-8910
▁клуб	-8911
пила	-8912
▁St	-8913
зий	-8914
ора	-8915
▁ТО	-8916
мани	-8917
▁Яро	-8918
▁смертью	-8919
▁Тан	-8920
▁военных	-8921
▁продолжает	-8922
▁бои	-8923
▁ико	-8924
▁хму	-8925
кового	-8926
▁телевизор	-8927
▁конья	-8928
▁Наши	-8929
▁коридоре	-8930
▁скольз	-8931
▁топо	-8932
вляет	-8933
▁ласково	-8934
чному	-8935
▁понимаете	-8936
фом	-8937
ць	-8938
▁Петра	-8939
▁квадра	-8940
▁работала	-8941
▁МА	-8942
выр	-8943
▁Вон	-8944
щенный	-8945
▁Денис	-8946
▁путем	-8947
▁Бого	-8948
▁махнул	-8949
▁одежда	-8950
▁упор	-8951
вии	-8952
▁щё	-8953
▁поне	-8954
▁раска	-8955
чт	-8956
▁эго	-8957
▁помещение	-8958
ity	-8959
▁км	-8960
▁марта	-8961
▁Поя	-8962
стся	-8963
▁мото	-8964
▁отряд	-8965
▁уко	-8966
нётся	-8967
скали	-8968
▁курсе	-8969
▁сказки	-8970
▁Мон	-8971
▁заре	-8972
▁сможешь	-8973
▁борьбы	-8974
▁произвед	-8975
▁декабря	-8976
▁подобного	-8977
▁Ак	-8978
хватить	-8979
шало	-8980
▁большей	-8981
лое	-8982
▁изнутри	-8983
ht	-8984
ВАН	-8985
дятся	-8986
▁сдер	-8987
▁Президен	-8988
▁находятся	-8989
▁Раньше	-8990
▁облада	-8991
▁скажем	-8992
мм	-8993
▁систему	-8994
▁дипло	-8995
▁нарисо	-8996
▁la	-8997
▁этажа	-8998
▁обрадо	-8999
▁гаран	-9000
▁объятия	-9001
▁паралле	-9002
▁положила	-9003
▁создания	-9004
▁сканд	-9005
▁школа	-9006
▁задача	-9007
десяти	-9008
▁пальцев	-9009
▁природ	-9010
уда	-9011
▁полное	-9012
▁послышался	-9013
▁Кому	-9014
▁заставил	-9015
rom	-9016
шлись	-9017
▁вски	-9018
▁not	-9019
евича	-9020
▁мечты	-9021
▁забыли	-9022
▁заклина	-9023
▁действие	-9024
наве	-9025
▁Библи	-9026
▁Встре	-9027
▁Сразу	-9028
▁рекомен	-9029
").	-9030
▁топ	-9031
▁партий	-9032
▁Тимо	-9033
▁разры	-9034
▁долларов	-9035
рщи	-9036
▁Эр	-9037
▁снять	-9038
▁торгов	-9039
▁поехали	-9040
нимали	-9041
змом	-9042
▁Лен	-9043
▁пало	-9044
▁дрожа	-9045
▁попала	-9046
▁вылез	-9047
обла	-9048
▁пропи	-9049
▁службу	-9050
▁старика	-9051
▁видите	-9052
▁удержи	-9053
▁поведение	-9054
пси	-9055
▁АН	-9056
▁разница	-9057
▁изде	-9058
▁Ново	-9059
▁похи	-9060
▁Пришлось	-9061
алакти	-9062
▁Сту	-9063
▁нра	-9064
▁тури	-9065
▁подгото	-9066
▁Гля	-9067
▁попо	-9068
▁призра	-9069
▁тен	-9070
▁мисти	-9071
сать	-9072
▁шам	-9073
▁Хочу	-9074
▁мерз	-9075
▁каждая	-9076
▁зим	-9077
▁",	-9078
▁as	-9079
риа	-9080
▁ходит	-9081
▁песен	-9082
▁надолго	-9083
▁частности	-9084
▁пропо	-9085
▁музе	-9086
▁мура	-9087
▁стесня	-9088
▁раздели	-9089
▁странное	-9090
▁Закон	-9091
▁сдви	-9092
▁оказа	-9093
▁кисло	-9094
▁говорите	-9095
жилась	-9096
▁Николаевич	-9097
▁позо	-9098
▁соло	-9099
дай	-9100
▁//	-9101
▁Сашка	-9102
▁беспре	-9103
▁нара	-9104
▁высказы	-9105
ходом	-9106
▁пробо	-9107
▁звезда	-9108
▁напад	-9109
▁исчезла	-9110
▁делам	-9111
пар	-9112
▁располаг	-9113
▁Люд	-9114
▁рим	-9115
▁июля	-9116
▁смеш	-9117
▁считаю	-9118
▁красивый	-9119
▁связ	-9120
▁газеты	-9121
▁втором	-9122
▁странный	-9123
▁миллионов	-9124
▁костюм	-9125
курен	-9126
▁стану	-9127
▁Ели	-9128
▁Дани	-9129
▁собаки	-9130
▁закрыла	-9131
OL	-9132
▁причины	-9133
другому	-9134
▁шло	-9135
▁местных	-9136
служи	-9137
▁тормо	-9138
чии	-9139
▁отправились	-9140
▁капитали	-9141
▁ссо	-9142
▁наверх	-9143
▁Народ	-9144
▁масси	-9145
▁белых	-9146
▁малей	-9147
рис	-9148
▁Оба	-9149
▁Жаль	-9150
▁воспита	-9151
Пет	-9152
▁Рей	-9153
▁представляет	-9154
Ла	-9155
сную	-9156
▁ся	-9157
вину	-9158
веди	-9159
▁июня	-9160
▁иници	-9161
▁помол	-9162
▁Понятно	-9163
▁Володя	-9164
▁пь	-9165
▁безна	-9166
▁препят	-9167
тихоньку	-9168
▁забе	-9169
валь	-9170
▁упомина	-9171
поле	-9172
▁полтора	-9173
up	-9174
▁двигаться	-9175
▁поцеловал	-9176
ant	-9177
син	-9178
▁дышать	-9179
▁вопроса	-9180
▁бывают	-9181
▁октября	-9182
▁общаться	-9183
тивного	-9184
вшем	-9185
▁Лицо	-9186
▁кури	-9187
▁смешно	-9188
▁заговорил	-9189
▁правитель	-9190
ляя	-9191
▁умеет	-9192
▁моём	-9193
▁площадь	-9194
▁вопросом	-9195
▁Гене	-9196
▁Вместо	-9197
▁поды	-9198
▁давал	-9199
▁нахму	-9200
чны	-9201
▁Еги	-9202
▁бух	-9203
▁храм	-9204
вока	-9205
▁спаси	-9206
▁позволяет	-9207
▁неподви	-9208
▁таб	-9209
▁грузо	-9210
▁толпы	-9211
▁умень	-9212
▁любую	-9213
▁Продол	-9214
▁выглядел	-9215
▁помогает	-9216
▁бояться	-9217
▁информация	-9218
▁секунды	-9219
▁желу	-9220
▁майор	-9221
▁милая	-9222
▁господа	-9223
мере	-9224
▁опустил	-9225
▁капель	-9226
▁старых	-9227
эл	-9228
тилось	-9229
▁осматри	-9230
дало	-9231
настоящему	-9232
▁СА	-9233
хала	-9234
▁свидете	-9235
▁заметили	-9236
май	-9237
▁стук	-9238
▁НУ	-9239
▁беда	-9240
▁Короче	-9241
▁Вспомни	-9242
▁темы	-9243
▁ожидая	-9244
▁стекля	-9245
▁отказался	-9246
▁ня	-9247
произ	-9248
▁сутки	-9249
▁всяком	-9250
▁Голос	-9251
▁играет	-9252
▁акку	-9253
▁крест	-9254
▁помнил	-9255
▁погляды	-9256
▁Ребята	-9257
▁Лин	-9258
гивает	-9259
женное	-9260
▁войти	-9261
▁кругом	-9262
▁данном	-9263
▁КНИГ	-9264
▁человеке	-9265
ющейся	-9266
▁включи	-9267
▁костра	-9268
▁наступи	-9269
лиан	-9270
▁поэта	-9271
▁ПРИ	-9272
▁Соло	-9273
▁фру	-9274
▁пойдет	-9275
▁Город	-9276
▁изли	-9277
▁суббо	-9278
▁решать	-9279
▁проверя	-9280
▁крат	-9281
▁четырех	-9282
▁служить	-9283
танные	-9284
▁тали	-9285
▁убеди	-9286
▁представления	-9287
▁Выс	-9288
▁риту	-9289
спокой	-9290
▁остров	-9291
▁перено	-9292
▁счастлив	-9293
▁проводить	-9294
доволь	-9295
▁отдельно	-9296
▁положено	-9297
▁независимо	-9298
зира	-9299
рованные	-9300
▁вытащил	-9301
▁сделаю	-9302
даль	-9303
▁влюби	-9304
водил	-9305
▁всеоб	-9306
▁завод	-9307
▁жду	-9308
▁девять	-9309
▁Золо	-9310
▁пустой	-9311
БО	-9312
▁невыноси	-9313
▁рта	-9314
▁крики	-9315
▁учителя	-9316
ъясни	-9317
▁анало	-9318
ночка	-9319
▁неувер	-9320
▁силами	-9321
▁такому	-9322
▁Ваше	-9323
▁отвечать	-9324
▁Кали	-9325
порт	-9326
▁НИ	-9327
▁Ира	-9328
▁посред	-9329
▁туалет	-9330
▁чувствуя	-9331
▁измер	-9332
▁данные	-9333
▁посторон	-9334
▁нал	-9335
▁зеле	-9336
▁Генри	-9337
▁супер	-9338
▁перепу	-9339
▁справа	-9340
▁лучи	-9341
▁страдания	-9342
ies	-9343
▁Всегда	-9344
▁успешно	-9345
▁Российской	-9346
▁карты	-9347
▁звер	-9348
▁оправды	-9349
▁целую	-9350
Она	-9351
▁Вчера	-9352
▁Спи	-9353
Де	-9354
▁кожи	-9355
▁Мальчик	-9356
▁деятельность	-9357
▁уны	-9358
казу	-9359
▁отки	-9360
▁огор	-9361
▁зубами	-9362
▁изя	-9363
щийся	-9364
▁жидко	-9365
▁стака	-9366
▁команды	-9367
▁спектак	-9368
щению	-9369
▁обеда	-9370
ёв	-9371
▁Обо	-9372
редка	-9373
▁Сме	-9374
мил	-9375
гается	-9376
▁маленькую	-9377
▁смотрят	-9378
▁фигура	-9379
ER	-9380
▁Внезапно	-9381
▁запер	-9382
▁зау	-9383
▁Была	-9384
▁воскликнула	-9385
▁Действительно	-9386
▁Вра	-9387
▁карь	-9388
▁движением	-9389
город	-9390
довой	-9391
▁пояс	-9392
▁возникает	-9393
начально	-9394
ровь	-9395
▁сцен	-9396
щаю	-9397
рита	-9398
▁ручку	-9399
чьи	-9400
▁провод	-9401
▁взрыв	-9402
▁песню	-9403
▁достала	-9404
дак	-9405
таны	-9406
▁любишь	-9407
казалось	-9408
дование	-9409
▁страсти	-9410
▁взры	-9411
▁Сви	-9412
лыб	-9413
▁сумел	-9414
▁служа	-9415
▁давать	-9416
планет	-9417
▁образования	-9418
▁подми	-9419
▁давали	-9420
▁подчер	-9421
▁Взя	-9422
▁доса	-9423
▁зверь	-9424
▁ar	-9425
тину	-9426
тав	-9427
▁счёт	-9428
кратно	-9429
▁храни	-9430
▁Гит	-9431
▁войск	-9432
дись	-9433
▁Бере	-9434
▁разговоры	-9435
ниях	-9436
▁занимался	-9437
▁евреев	-9438
дре	-9439
ставив	-9440
▁перевод	-9441
▁подобные	-9442
▁реаги	-9443
▁беспла	-9444
сился	-9445
▁применя	-9446
▁Пы	-9447
▁меро	-9448
▁доверя	-9449
▁финансо	-9450
▁Лей	-9451
▁оса	-9452
▁фразу	-9453
стров	-9454
▁зап	-9455
▁звучит	-9456
▁оставили	-9457
▁повернулась	-9458
▁дурак	-9459
▁камня	-9460
▁взяв	-9461
▁Сказал	-9462
вному	-9463
▁Побе	-9464
▁сигнал	-9465
Ви	-9466
йду	-9467
▁выходить	-9468
▁января	-9469
▁кризи	-9470
менно	-9471
▁хохо	-9472
тившись	-9473
▁Arm	-9474
▁Мира	-9475
▁черты	-9476
резал	-9477
▁колю	-9478
ЕНЬ	-9479
▁неф	-9480
▁улыбается	-9481
ждён	-9482
▁автобус	-9483
ванной	-9484
▁птиц	-9485
▁акти	-9486
▁уник	-9487
Из	-9488
▁уверена	-9489
▁капитана	-9490
ов	-9491
ждены	-9492
▁вторую	-9493
▁эмоции	-9494
клу	-9495
▁делаю	-9496
▁генера	-9497
▁удивлением	-9498
▁засо	-9499
Зна	-9500
▁убивать	-9501
сев	-9502
вестно	-9503
▁вызо	-9504
▁разбе	-9505
▁Тай	-9506
▁работали	-9507
чел	-9508
гими	-9509
кина	-9510
▁согласен	-9511
▁Немного	-9512
▁Светлана	-9513
▁автомобиль	-9514
▁работой	-9515
довала	-9516
▁вечеру	-9517
ковать	-9518
▁Союза	-9519
▁приехала	-9520
▁нача	-9521
▁..	-9522
▁видео	-9523
▁тихонько	-9524
▁верил	-9525
пкой	-9526
▁золото	-9527
ранже	-9528
▁заря	-9529
▁эмоций	-9530
был	-9531
▁дост	-9532
▁привлек	-9533
▁Ат	-9534
▁БО	-9535
щена	-9536
чаются	-9537
важно	-9538
▁стрель	-9539
▁тара	-9540
▁провел	-9541
▁Такая	-9542
▁давала	-9543
▁давая	-9544
▁Были	-9545
▁прине	-9546
▁суток	-9547
▁самостоятельно	-9548
ag	-9549
▁прибо	-9550
▁вело	-9551
▁Хочешь	-9552
▁определить	-9553
▁прило	-9554
▁становятся	-9555
▁лик	-9556
реза	-9557
▁интересо	-9558
▁последнюю	-9559
end	-9560
▁положения	-9561
▁me	-9562
шенной	-9563
▁саду	-9564
▁гени	-9565
▁классе	-9566
▁Кня	-9567
нившись	-9568
▁оли	-9569
скур	-9570
лондин	-9571
▁Созда	-9572
▁лок	-9573
▁вежливо	-9574
▁дорогая	-9575
ЧИ	-9576
▁отбро	-9577
▁знаний	-9578
кости	-9579
▁выклю	-9580
таски	-9581
мень	-9582
▁твёр	-9583
возмо	-9584
▁границы	-9585
▁приходил	-9586
▁серде	-9587
▁автомати	-9588
▁отодви	-9589
▁комната	-9590
▁апо	-9591
▁пошло	-9592
▁Академи	-9593
▁романти	-9594
▁стекла	-9595
▁ког	-9596
▁Далее	-9597
▁матерью	-9598
▁пристально	-9599
ныч	-9600
▁больнице	-9601
▁чувствует	-9602
тером	-9603
▁восстанови	-9604
чание	-9605
▁старая	-9606
AN	-9607
▁Неожиданно	-9608
мона	-9609
▁скучно	-9610
▁природа	-9611
▁просты	-9612
▁включая	-9613
▁мокры	-9614
▁собрать	-9615
▁даёт	-9616
▁деда	-9617
▁доноси	-9618
▁задержи	-9619
▁исправи	-9620
▁приняли	-9621
ДН	-9622
▁гли	-9623
▁труп	-9624
▁сочув	-9625
шкин	-9626
▁истины	-9627
рованных	-9628
▁погу	-9629
▁Прямо	-9630
ционных	-9631
мыслен	-9632
▁бросила	-9633
▁энергию	-9634
▁пак	-9635
ровку	-9636
▁Увидев	-9637
▁зимой	-9638
▁племян	-9639
▁большими	-9640
▁сыну	-9641
ане	-9642
стят	-9643
▁Lib	-9644
▁выдви	-9645
▁диване	-9646
▁поднять	-9647
хин	-9648
▁еды	-9649
▁всякой	-9650
▁правил	-9651
▁кольцо	-9652
▁шеве	-9653
ik	-9654
▁присел	-9655
▁ожидании	-9656
▁траге	-9657
▁груз	-9658
▁весё	-9659
▁глоб	-9660
▁ждёт	-9661
▁возро	-9662
▁Соб	-9663
ровка	-9664
▁убор	-9665
стам	-9666
▁Прос	-9667
▁кожу	-9668
▁снего	-9669
рях	-9670
▁Дя	-9671
ладен	-9672
▁соблаз	-9673
▁монет	-9674
▁положении	-9675
▁распростран	-9676
▁Прошу	-9677
▁лошади	-9678
последствии	-9679
сажи	-9680
▁уво	-9681
ненные	-9682
▁Спустя	-9683
▁Обычно	-9684
щенные	-9685
▁Следу	-9686
нышко	-9687
▁личность	-9688
ченное	-9689
жились	-9690
▁мозга	-9691
▁решить	-9692
▁отозвался	-9693
▁ген	-9694
▁взаим	-9695
▁отъез	-9696
▁XI	-9697
▁Право	-9698
▁мужики	-9699
ишь	-9700
▁обору	-9701
шне	-9702
▁табу	-9703
▁ведет	-9704
▁различные	-9705
▁сюр	-9706
▁водитель	-9707
▁здоровья	-9708
▁находиться	-9709
▁судоро	-9710
▁вскочил	-9711
▁князя	-9712
веду	-9713
мотр	-9714
▁разноцвет	-9715
▁Пан	-9716
▁Сли	-9717
▁пота	-9718
казывается	-9719
хим	-9720
▁Фу	-9721
▁Ник	-9722
▁нагло	-9723
щер	-9724
▁нала	-9725
▁осен	-9726
▁добраться	-9727
пам	-9728
▁имея	-9729
▁Пошли	-9730
▁глазам	-9731
▁попробовать	-9732
далось	-9733
▁деше	-9734
▁порядка	-9735
куро	-9736
турой	-9737
▁снаря	-9738
▁молоде	-9739
▁откро	-9740
▁борьбе	-9741
сий	-9742
▁международ	-9743
▁небы	-9744
▁Лор	-9745
▁Ок	-9746
▁позд	-9747
▁хозяйка	-9748
▁сели	-9749
вленный	-9750
▁др	-9751
▁бороться	-9752
▁Пит	-9753
ционный	-9754
уме	-9755
▁спала	-9756
ставили	-9757
▁оборот	-9758
▁демокра	-9759
пели	-9760
▁ван	-9761
▁молчание	-9762
▁президент	-9763
шений	-9764
▁изменилось	-9765
▁направилась	-9766
▁черной	-9767
idale	-9768
▁полка	-9769
рур	-9770
▁испа	-9771
бен	-9772
ритет	-9773
▁столик	-9774
▁Armidale	-9775
блем	-9776
жимая	-9777
▁думали	-9778
▁Иоси	-9779
лёт	-9780
▁потихоньку	-9781
ДАТ	-9782
▁муже	-9783
▁выйдет	-9784
▁маленького	-9785
▁замка	-9786
тору	-9787
▁кости	-9788
▁телефона	-9789
вную	-9790
▁прошед	-9791
зию	-9792
▁Писа	-9793
милия	-9794
вилось	-9795
▁сохран	-9796
стика	-9797
rary	-9798
▁продолжать	-9799
▁преимуще	-9800
▁твоё	-9801
▁владе	-9802
нче	-9803
груз	-9804
▁подло	-9805
лали	-9806
▁зрели	-9807
▁поехал	-9808
▁апреля	-9809
шля	-9810
▁пулем	-9811
▁встретились	-9812
▁le	-9813
новича	-9814
▁выле	-9815
▁Сын	-9816
▁относится	-9817
▁нале	-9818
▁улуч	-9819
▁перспекти	-9820
▁богов	-9821
яр	-9822
▁Евгений	-9823
▁мистер	-9824
▁атмосф	-9825
▁Яков	-9826
▁примен	-9827
рим	-9828
гули	-9829
▁максим	-9830
▁веке	-9831
▁далё	-9832
▁Филип	-9833
▁депута	-9834
щено	-9835
▁мани	-9836
▁скорости	-9837
XX	-9838
▁моменты	-9839
ждению	-9840
▁убили	-9841
▁шку	-9842
дость	-9843
▁милый	-9844
▁рассказа	-9845
▁слю	-9846
менти	-9847
ченная	-9848
▁публика	-9849
▁религии	-9850
▁противостоя	-9851
▁человечество	-9852
▁ОБ	-9853
зьми	-9854
▁технологи	-9855
▁белом	-9856
▁поверхность	-9857
▁кричал	-9858
▁показывает	-9859
▁эмоцион	-9860
ЛЬТУ	-9861
▁берет	-9862
▁плечу	-9863
▁Зу	-9864
▁чей	-9865
▁бабо	-9866
▁завет	-9867
кома	-9868
▁кладбище	-9869
▁процесса	-9870
▁разглядеть	-9871
▁рассмеялся	-9872
жую	-9873
Пу	-9874
▁йо	-9875
дёшь	-9876
▁Поло	-9877
▁открылась	-9878
▁пыли	-9879
▁любили	-9880
▁следовало	-9881
▁рассказывала	-9882
▁Окса	-9883
▁ноября	-9884
▁Чуть	-9885
▁диви	-9886
▁долг	-9887
▁шкаф	-9888
▁Попро	-9889
▁получалось	-9890
▁Всю	-9891
▁печа	-9892
▁больницу	-9893
▁настоящая	-9894
сомо	-9895
▁прищу	-9896
нских	-9897
▁думаете	-9898
▁сала	-9899
▁слева	-9900
СТО	-9901
мал	-9902
▁пиво	-9903
▁Кот	-9904
▁ВИ	-9905
тывать	-9906
▁песок	-9907
te	-9908
рета	-9909
ЛОГИЯ	-9910
биться	-9911
рои	-9912
▁крю	-9913
▁Library	-9914
▁Простите	-9915
волно	-9916
▁излу	-9917
▁нену	-9918
▁полную	-9919
▁устрем	-9920
стила	-9921
бления	-9922
ватит	-9923
▁ЕВРО	-9924
▁подруг	-9925
▁объяснил	-9926
СКАЯ	-9927
▁пакет	-9928
▁третьего	-9929
▁предложила	-9930
▁жертву	-9931
▁близких	-9932
▁выез	-9933
▁воинов	-9934
VA	-9935
.),	-9936
▁тяго	-9937
▁падает	-9938
▁отношениях	-9939
▁сигарету	-9940
▁спеша	-9941
▁Прекра	-9942
▁пуши	-9943
▁днём	-9944
▁уничтожить	-9945
больше	-9946
ковник	-9947
▁теории	-9948
▁слезами	-9949
▁сном	-9950
▁уку	-9951
ФА	-9952
▁пил	-9953
▁баба	-9954
▁лучший	-9955
дры	-9956
нель	-9957
бже	-9958
града	-9959
право	-9960
читала	-9961
вере	-9962
ссер	-9963
▁зары	-9964
▁сведения	-9965
▁невер	-9966
▁полгода	-9967
▁Быстро	-9968
▁остановились	-9969
▁сущности	-9970
▁популяр	-9971
виков	-9972
лят	-9973
▁блок	-9974
▁строить	-9975
▁выбора	-9976
почки	-9977
▁поже	-9978
▁травы	-9979
▁оружием	-9980
che	-9981
▁попали	-9982
▁миллиар	-9983
▁потеряла	-9984
▁чувством	-9985
ЕВ	-9986
стье	-9987
▁играл	-9988
▁великолеп	-9989
ждо	-9990
▁опубли	-9991
▁гг	-9992
▁притя	-9993
▁прислуши	-9994
▁испуганно	-9995
▁любимого	-9996
▁Жена	-9997
житься	-9998
▁старалась	-9999
▁повторил	-10000
▁некуда	-10001
▁writ	-10002
зилась	-10003
тела	-10004
▁Лон	-10005
▁Дух	-10006
ell	-10007
▁Оче	-10008
▁бесси	-10009
▁братьев	-10010
▁зата	-10011
▁наки	-10012
▁потолок	-10013
▁хруст	-10014
▁недель	-10015
таре	-10016
ордина	-10017
▁членов	-10018
▁экспеди	-10019
▁прекрасный	-10020
▁Небо	-10021
▁лошадь	-10022
▁курс	-10023
▁сопер	-10024
▁нечи	-10025
▁пуска	-10026
▁профи	-10027
▁снега	-10028
хь	-10029
▁пива	-10030
▁боится	-10031
РОВО	-10032
▁минимум	-10033
▁Импера	-10034
▁замести	-10035
зиться	-10036
▁системе	-10037
Мне	-10038
▁обратил	-10039
НОЙ	-10040
чится	-10041
▁коне	-10042
▁РОССИИ	-10043
зра	-10044
ловна	-10045
▁потра	-10046
▁разума	-10047
▁видне	-10048
▁процессе	-10049
▁св	-10050
▁Алё	-10051
▁потерять	-10052
▁Холо	-10053
▁сознании	-10054
кают	-10055
▁щел	-10056
ТУАЛЬ	-10057
▁Артур	-10058
▁процеду	-10059
▁протяжении	-10060
стики	-10061
▁района	-10062
сант	-10063
▁создал	-10064
▁солдаты	-10065
▁коридору	-10066
▁лучших	-10067
щество	-10068
▁ЛЮ	-10069
▁зуб	-10070
▁золотой	-10071
▁Кур	-10072
▁опер	-10073
▁цени	-10074
▁Европы	-10075
▁Ван	-10076
▁недовольно	-10077
▁похожа	-10078
▁вспоминать	-10079
лера	-10080
▁расту	-10081
▁Анатоли	-10082
▁образование	-10083
циони	-10084
▁узнали	-10085
▁деревню	-10086
▁сохранить	-10087
▁собою	-10088
тывая	-10089
▁плащ	-10090
кция	-10091
нели	-10092
сипе	-10093
▁Этого	-10094
▁вывод	-10095
▁грани	-10096
хав	-10097
▁ресур	-10098
▁улыбался	-10099
III	-10100
▁сцене	-10101
▁Судь	-10102
▁рассвет	-10103
▁бак	-10104
▁Дере	-10105
▁людях	-10106
▁собственных	-10107
▁сосу	-10108
▁опыта	-10109
▁Самое	-10110
давно	-10111
тность	-10112
▁Здравствуйте	-10113
▁полотен	-10114
влю	-10115
▁рабочих	-10116
▁избавиться	-10117
яли	-10118
▁острова	-10119
▁Юра	-10120
▁поведения	-10121
▁гара	-10122
Ва	-10123
▁ладонью	-10124
▁удовольствия	-10125
▁Ваня	-10126
немся	-10127
▁веков	-10128
▁перели	-10129
ЕВА	-10130
▁Коло	-10131
▁совести	-10132
▁зависимости	-10133
КУ	-10134
▁хро	-10135
▁пальто	-10136
▁героя	-10137
зут	-10138
крик	-10139
казывает	-10140
▁терпеть	-10141
▁Ad	-10142
▁собирается	-10143
▁Даша	-10144
▁пузы	-10145
мину	-10146
▁мобиль	-10147
▁отзы	-10148
▁зашел	-10149
СО	-10150
▁дружно	-10151
дны	-10152
▁бою	-10153
▁скоростью	-10154
▁великого	-10155
шенных	-10156
▁драко	-10157
▁придумал	-10158
ИКА	-10159
ционе	-10160
▁усы	-10161
▁Взгля	-10162
ственными	-10163
▁Европе	-10164
▁коленях	-10165
▁домо	-10166
▁лжи	-10167
▁идей	-10168
▁проснулась	-10169
▁периоди	-10170
ок	-10171
▁оре	-10172
▁видят	-10173
▁облака	-10174
мети	-10175
▁увы	-10176
▁разделя	-10177
нуне	-10178
зительно	-10179
▁Ам	-10180
▁устре	-10181
чую	-10182
▁Лев	-10183
спор	-10184
▁предстоит	-10185
▁жё	-10186
▁засмеялся	-10187
доль	-10188
▁мяса	-10189
писать	-10190
▁подле	-10191
▁ночной	-10192
▁фаль	-10193
пнул	-10194
▁лбу	-10195
лагал	-10196
▁переу	-10197
▁Australian	-10198
▁авари	-10199
▁опасность	-10200
даю	-10201
▁брыз	-10202
▁ориенти	-10203
▁Поскольку	-10204
▁маленьких	-10205
ходы	-10206
▁особого	-10207
рона	-10208
шена	-10209
▁гибели	-10210
▁приво	-10211
▁пома	-10212
▁товарища	-10213
▁вал	-10214
дования	-10215
▁чьи	-10216
▁патро	-10217
▁энергия	-10218
чут	-10219
нялся	-10220
▁перебира	-10221
▁заду	-10222
▁Константин	-10223
▁прошёл	-10224
▁милиции	-10225
зды	-10226
▁прока	-10227
сомненно	-10228
вано	-10229
▁рак	-10230
▁плакать	-10231
▁сделает	-10232
▁пробормотал	-10233
▁испорти	-10234
▁удастся	-10235
кен	-10236
▁Дела	-10237
талась	-10238
▁понимание	-10239
▁выры	-10240
▁вцепи	-10241
▁граду	-10242
▁прика	-10243
даго	-10244
приятие	-10245
чкам	-10246
ливым	-10247
▁позиции	-10248
▁знакомые	-10249
▁деревен	-10250
РЫ	-10251
НОГО	-10252
▁ключи	-10253
исти	-10254
▁Капитан	-10255
шалась	-10256
▁траву	-10257
ленное	-10258
▁Также	-10259
▁волна	-10260
▁затра	-10261
▁Вин	-10262
▁конкур	-10263
нц	-10264
▁Джек	-10265
▁бегу	-10266
▁Землю	-10267
▁седь	-10268
▁просыпа	-10269
▁огромная	-10270
▁Матери	-10271
▁характера	-10272
▁изящ	-10273
▁заодно	-10274
▁стенах	-10275
▁част	-10276
▁улыбку	-10277
▁объедин	-10278
▁Оте	-10279
▁надел	-10280
▁восьми	-10281
▁отобра	-10282
ська	-10283
▁колба	-10284
▁Франции	-10285
▁неожиданности	-10286
▁враг	-10287
▁странным	-10288
▁окончания	-10289
ристо	-10290
▁пары	-10291
▁оставался	-10292
▁Ть	-10293
дена	-10294
▁служи	-10295
▁входит	-10296
▁прочих	-10297
▁выстав	-10298
вим	-10299
РАФ	-10300
▁звери	-10301
слан	-10302
▁табли	-10303
Кто	-10304
▁опуска	-10305
▁парней	-10306
шная	-10307
▁необыкнов	-10308
▁высокого	-10309
▁принялась	-10310
дые	-10311
▁дожида	-10312
▁самолё	-10313
▁цеп	-10314
▁вера	-10315
▁пригласил	-10316
▁бывшего	-10317
IC	-10318
▁кучу	-10319
▁уходя	-10320
▁новости	-10321
▁свободно	-10322
▁целу	-10323
оле	-10324
сая	-10325
лагода	-10326
▁играли	-10327
дже	-10328
рные	-10329
▁выно	-10330
▁литературы	-10331
▁повод	-10332
вара	-10333
▁Наша	-10334
ствами	-10335
▁набро	-10336
▁империи	-10337
▁ЭТО	-10338
храни	-10339
▁Красно	-10340
▁защиты	-10341
▁отс	-10342
▁Слово	-10343
Лю	-10344
▁нею	-10345
▁новом	-10346
рованной	-10347
▁рав	-10348
▁бутылки	-10349
▁Великий	-10350
кцию	-10351
цкого	-10352
рочка	-10353
▁направление	-10354
▁Юля	-10355
▁древних	-10356
▁шутку	-10357
▁тума	-10358
▁кругу	-10359
▁школь	-10360
▁имеется	-10361
▁Наталья	-10362
▁холодной	-10363
▁заставить	-10364
▁четко	-10365
йку	-10366
▁Тра	-10367
жками	-10368
▁бассе	-10369
чивый	-10370
▁небольшую	-10371
▁настоящего	-10372
мели	-10373
▁достав	-10374
▁био	-10375
ныне	-10376
ранда	-10377
▁Стас	-10378
▁Марга	-10379
▁ске	-10380
▁сидят	-10381
новна	-10382
▁верто	-10383
▁шокола	-10384
▁сокрови	-10385
видимо	-10386
▁Впере	-10387
▁Вя	-10388
oc	-10389
гаю	-10390
▁Дет	-10391
▁равнове	-10392
лью	-10393
рист	-10394
▁рыб	-10395
▁распу	-10396
РОЛОГИЯ	-10397
▁ура	-10398
рением	-10399
слава	-10400
▁Сергеевич	-10401
▁расстояние	-10402
вера	-10403
▁Ивановна	-10404
▁Марти	-10405
▁чрезвы	-10406
вина	-10407
фель	-10408
радо	-10409
▁способность	-10410
▁побежала	-10411
▁пили	-10412
▁настаи	-10413
▁туск	-10414
▁последняя	-10415
▁остановиться	-10416
сим	-10417
пора	-10418
▁поче	-10419
▁****	-10420
▁принц	-10421
▁страте	-10422
▁собрался	-10423
▁группу	-10424
▁держит	-10425
▁хими	-10426
стность	-10427
▁Слы	-10428
▁полная	-10429
▁зама	-10430
▁прив	-10431
▁толпа	-10432
▁траги	-10433
▁Сти	-10434
▁материи	-10435
▁добавила	-10436
▁Ваш	-10437
▁Знаю	-10438
юр	-10439
▁предме	-10440
ini	-10441
▁остановил	-10442
▁ВЫ	-10443
▁товар	-10444
▁Сталина	-10445
▁одер	-10446
▁урод	-10447
▁одеяло	-10448
▁Софи	-10449
▁кухни	-10450
▁хре	-10451
▁ремо	-10452
шней	-10453
▁Бил	-10454
▁раны	-10455
▁ресторан	-10456
▁Пушкина	-10457
▁родителям	-10458
чивает	-10459
▁важное	-10460
▁астро	-10461
▁подал	-10462
▁подсозна	-10463
▁скон	-10464
мс	-10465
▁нелег	-10466
▁ИНТЕЛ	-10467
▁птица	-10468
▁очу	-10469
▁понятие	-10470
СИ	-10471
ХО	-10472
▁рту	-10473
▁розы	-10474
▁занаве	-10475
▁Великой	-10476
▁общей	-10477
▁способны	-10478
▁военно	-10479
▁журнал	-10480
▁преступления	-10481
▁Рита	-10482
▁достиг	-10483
▁земной	-10484
зли	-10485
мбо	-10486
чники	-10487
▁покинуть	-10488
▁плакала	-10489
▁подоби	-10490
шев	-10491
▁билет	-10492
▁оттого	-10493
мотрел	-10494
▁гул	-10495
▁проход	-10496
▁пери	-10497
мора	-10498
▁меры	-10499
дито	-10500
▁сгу	-10501
▁мл	-10502
▁станут	-10503
▁красный	-10504
▁вызывает	-10505
▁Ян	-10506
рово	-10507
СЛЕД	-10508
▁тёп	-10509
▁холодный	-10510
▁Бабушка	-10511
▁ребёнок	-10512
рией	-10513
▁просить	-10514
▁сры	-10515
▁Верхов	-10516
Бу	-10517
нело	-10518
▁прит	-10519
живает	-10520
▁гнев	-10521
▁втор	-10522
дира	-10523
▁пешком	-10524
▁Ветер	-10525
▁грана	-10526
▁Здравствуй	-10527
▁боясь	-10528
▁встретить	-10529
▁уставился	-10530
▁бойся	-10531
образи	-10532
▁забрать	-10533
▁предус	-10534
▁длинный	-10535
▁Малы	-10536
вавшись	-10537
▁человеческих	-10538
▁удосто	-10539
▁листь	-10540
если	-10541
мета	-10542
▁плавно	-10543
▁исследования	-10544
нена	-10545
сель	-10546
▁выбрал	-10547
ванная	-10548
▁аресто	-10549
▁белого	-10550
ЧА	-10551
ИЗА	-10552
▁терять	-10553
щай	-10554
▁Поль	-10555
▁мороз	-10556
▁гость	-10557
▁домом	-10558
▁показался	-10559
▁буквы	-10560
▁провор	-10561
▁зак	-10562
▁февраля	-10563
▁института	-10564
▁Судя	-10565
▁короле	-10566
шаю	-10567
IS	-10568
▁толку	-10569
просила	-10570
▁Кли	-10571
▁пожало	-10572
▁работают	-10573
▁бред	-10574
▁посмотрим	-10575
▁проводил	-10576
▁искусство	-10577
▁Помню	-10578
▁штаны	-10579
▁нави	-10580
▁осво	-10581
▁изредка	-10582
▁подъезда	-10583
▁понимают	-10584
▁существи	-10585
▁армию	-10586
▁бежал	-10587
▁моими	-10588
▁тридцати	-10589
▁цветами	-10590
енную	-10591
▁мешок	-10592
▁собиралась	-10593
гур	-10594
▁ищет	-10595
▁ходят	-10596
▁приближа	-10597
▁спины	-10598
▁;;;;	-10599
▁спорт	-10600
▁младен	-10601
праведливо	-10602
фана	-10603
▁выте	-10604
▁граф	-10605
▁ящик	-10606
▁сесть	-10607
▁экране	-10608
▁откровенно	-10609
▁поблагода	-10610
ётр	-10611
▁сказав	-10612
тило	-10613
▁продолжила	-10614
чён	-10615
▁наук	-10616
ленности	-10617
▁Эл	-10618
▁выпа	-10619
▁высоты	-10620
▁начался	-10621
совой	-10622
▁одних	-10623
▁городов	-10624
▁рези	-10625
▁проговорила	-10626
ure	-10627
куп	-10628
▁слышали	-10629
▁командира	-10630
▁усло	-10631
вам	-10632
▁бага	-10633
▁главной	-10634
зап	-10635
дило	-10636
ционные	-10637
IN	-10638
▁впа	-10639
▁Степан	-10640
AL	-10641
▁сплет	-10642
▁стула	-10643
▁создание	-10644
▁делах	-10645
▁кошка	-10646
▁фер	-10647
▁заи	-10648
▁любез	-10649
▁ПА	-10650
▁ВСЕ	-10651
▁соедин	-10652
▁конц	-10653
▁засто	-10654
▁имуще	-10655
▁открыто	-10656
гон	-10657
неве	-10658
▁причин	-10659
▁пиджа	-10660
зав	-10661
▁звё	-10662
▁одежде	-10663
▁велосипе	-10664
▁тысяче	-10665
▁сравнению	-10666
▁выдержал	-10667
▁корзи	-10668
▁перепол	-10669
▁обоз	-10670
▁погля	-10671
▁военной	-10672
▁выве	-10673
▁кармане	-10674
лар	-10675
▁магни	-10676
▁дёр	-10677
▁насили	-10678
▁заняться	-10679
▁стя	-10680
▁данной	-10681
▁чая	-10682
▁Бал	-10683
▁ответственность	-10684
▁мозги	-10685
▁выби	-10686
▁половина	-10687
▁Мил	-10688
▁господ	-10689
▁by	-10690
▁Глеб	-10691
▁причём	-10692
енец	-10693
▁бросить	-10694
▁комфор	-10695
▁фильма	-10696
▁бросилась	-10697
▁собирались	-10698
▁разбой	-10699
ИЗ	-10700
▁драгоцен	-10701
▁челю	-10702
вающая	-10703
▁продолжая	-10704
▁провин	-10705
почка	-10706
▁Ого	-10707
делась	-10708
▁призем	-10709
▁Подня	-10710
▁духом	-10711
▁at	-10712
▁делами	-10713
лян	-10714
▁Свер	-10715
▁Послу	-10716
▁привед	-10717
▁убь	-10718
▁красивой	-10719
▁Тоже	-10720
▁чужие	-10721
▁узнает	-10722
маты	-10723
▁момен	-10724
▁сидень	-10725
▁ошибки	-10726
▁однокласс	-10727
см	-10728
▁Будет	-10729
▁упомя	-10730
▁закона	-10731
▁Духа	-10732
▁обман	-10733
▁кричать	-10734
▁теку	-10735
▁сети	-10736
▁Федор	-10737
▁огромным	-10738
▁принадлежит	-10739
▁возраст	-10740
▁привяза	-10741
▁Спе	-10742
▁организм	-10743
лга	-10744
фак	-10745
▁процентов	-10746
рного	-10747
▁влияние	-10748
▁риск	-10749
▁журн	-10750
▁ЧТО	-10751
▁Уни	-10752
спешно	-10753
▁вначале	-10754
▁подокон	-10755
▁Ля	-10756
▁ИНФ	-10757
▁какому	-10758
▁Оказалось	-10759
▁жертвы	-10760
▁ВА	-10761
▁гулять	-10762
▁Бан	-10763
▁символи	-10764
▁статьи	-10765
▁удавалось	-10766
▁недав	-10767
▁менять	-10768
▁толком	-10769
▁Люба	-10770
▁территорию	-10771
▁показала	-10772
▁жадно	-10773
▁храма	-10774
▁начинал	-10775
▁приняла	-10776
▁палу	-10777
▁сны	-10778
▁траве	-10779
▁загоре	-10780
жан	-10781
▁выу	-10782
▁болезнь	-10783
▁начиная	-10784
▁купе	-10785
маг	-10786
▁перестала	-10787
▁Фор	-10788
ливая	-10789
▁аген	-10790
рованы	-10791
чину	-10792
▁госпи	-10793
▁спер	-10794
думала	-10795
▁завое	-10796
▁найду	-10797
▁writer	-10798
▁мелкие	-10799
▁мужской	-10800
сны	-10801
▁героев	-10802
▁судьбе	-10803
риз	-10804
▁Григорий	-10805
лий	-10806
▁ВЕКА	-10807
▁Соня	-10808
▁my	-10809
вите	-10810
▁нетерп	-10811
стое	-10812
▁Кай	-10813
▁Сиби	-10814
▁Пойдем	-10815
интересовалась	-10816
▁убийства	-10817
▁представление	-10818
▁ночам	-10819
▁организма	-10820
▁кричит	-10821
▁наду	-10822
▁весен	-10823
▁потери	-10824
довалась	-10825
▁оборачи	-10826
чени	-10827
правду	-10828
▁клиен	-10829
уголь	-10830
▁компания	-10831
ССО	-10832
▁осоз	-10833
▁вела	-10834
▁второе	-10835
▁голубо	-10836
▁консер	-10837
▁прице	-10838
▁беспомощ	-10839
▁шлю	-10840
скаки	-10841
тябрь	-10842
зировать	-10843
▁бен	-10844
▁служил	-10845
ливые	-10846
сье	-10847
язы	-10848
▁жан	-10849
▁всхли	-10850
▁остаётся	-10851
▁представлял	-10852
ждала	-10853
енькие	-10854
ЖДУ	-10855
▁способом	-10856
▁брез	-10857
▁ценно	-10858
▁верху	-10859
вола	-10860
▁разра	-10861
вершенно	-10862
▁платить	-10863
стать	-10864
ЛУ	-10865
ляться	-10866
▁осени	-10867
▁завали	-10868
тушка	-10869
▁НУРЕ	-10870
▁Пётр	-10871
▁собираюсь	-10872
▁достижения	-10873
▁отби	-10874
▁Япо	-10875
▁традиции	-10876
▁потряс	-10877
▁поверил	-10878
▁связано	-10879
▁странные	-10880
▁Зво	-10881
▁обязан	-10882
▁иное	-10883
▁грязь	-10884
▁порабо	-10885
▁петь	-10886
▁помещения	-10887
▁Оказывается	-10888
ствования	-10889
▁собак	-10890
▁ложь	-10891
▁продав	-10892
▁отметить	-10893
▁записы	-10894
▁пропал	-10895
▁подойти	-10896
▁взаимодей	-10897
▁тепла	-10898
чье	-10899
▁пад	-10900
▁существ	-10901
▁глава	-10902
нюдь	-10903
▁Нью	-10904
пнула	-10905
▁инстинк	-10906
▁врача	-10907
▁передал	-10908
▁Гал	-10909
▁КНИГА	-10910
▁продолжали	-10911
кнуло	-10912
▁мешает	-10913
▁шампан	-10914
▁лап	-10915
▁Хватит	-10916
▁жёл	-10917
▁небес	-10918
▁праздни	-10919
▁почита	-10920
▁наблюдая	-10921
▁неужели	-10922
кнулась	-10923
▁КУЛЬТУ	-10924
▁поиски	-10925
▁добрые	-10926
▁внутренний	-10927
няк	-10928
▁Валь	-10929
▁Давно	-10930
▁любые	-10931
▁ходила	-10932
▁понимания	-10933
▁блондин	-10934
▁Артем	-10935
▁озеро	-10936
▁мужу	-10937
▁схва	-10938
▁чёт	-10939
▁сущность	-10940
▁отчаянно	-10941
LD	-10942
▁расто	-10943
▁вызвать	-10944
▁представ	-10945
▁Пушкин	-10946
▁отказаться	-10947
гиба	-10948
▁Свобо	-10949
▁сочета	-10950
мочка	-10951
▁концер	-10952
▁овла	-10953
▁упре	-10954
▁поставили	-10955
▁неодно	-10956
▁Васильевич	-10957
▁изло	-10958
тальян	-10959
▁перекре	-10960
""	-10961
▁ковар	-10962
▁лапы	-10963
▁задума	-10964
▁договор	-10965
▁молодости	-10966
▁саму	-10967
▁зашла	-10968
▁техники	-10969
выше	-10970
клик	-10971
▁Ради	-10972
▁победы	-10973
шится	-10974
▁Дим	-10975
▁предвари	-10976
шайте	-10977
▁Слишком	-10978
▁сня	-10979
▁дама	-10980
▁расстоянии	-10981
ain	-10982
▁восстанов	-10983
ктору	-10984
▁адвока	-10985
РОВАН	-10986
▁послал	-10987
ною	-10988
тет	-10989
шился	-10990
бление	-10991
▁современной	-10992
▁Мя	-10993
▁названия	-10994
ОГРАФ	-10995
▁Голова	-10996
***	-10997
прият	-10998
▁дано	-10999
▁делая	-11000
";	-11001
▁z	-11002
тности	-11003
▁поколения	-11004
зая	-11005
▁акт	-11006
тными	-11007
граф	-11008
▁Ир	-11009
▁диало	-11010
▁позволить	-11011
▁экскур	-11012
шедший	-11013
"),	-11014
Ба	-11015
частье	-11016
▁нашими	-11017
▁избежать	-11018
▁вел	-11019
▁Петров	-11020
▁существительное	-11021
ванге	-11022
ВЫ	-11023
▁ада	-11024
▁поклон	-11025
▁вопроси	-11026
▁признать	-11027
▁опти	-11028
▁подряд	-11029
▁захотел	-11030
▁Две	-11031
пустили	-11032
▁кин	-11033
летряс	-11034
▁ближ	-11035
▁Чёр	-11036
▁белосне	-11037
▁риско	-11038
▁позвонить	-11039
og	-11040
▁Киев	-11041
▁мечтал	-11042
▁собирать	-11043
▁прох	-11044
▁обняла	-11045
стической	-11046
женную	-11047
▁задание	-11048
вий	-11049
ваешься	-11050
▁пирами	-11051
▁большом	-11052
▁прибе	-11053
▁покажу	-11054
казывать	-11055
▁Душа	-11056
▁присутствие	-11057
▁плоти	-11058
гало	-11059
сени	-11060
онер	-11061
▁мони	-11062
▁считали	-11063
▁последним	-11064
▁отва	-11065
▁полным	-11066
▁ЯЗЫ	-11067
▁ана	-11068
чишь	-11069
ДАТЕЛЬ	-11070
▁Быть	-11071
▁греш	-11072
▁пошу	-11073
подоб	-11074
▁эфи	-11075
▁удобно	-11076
▁показалась	-11077
▁прису	-11078
▁странах	-11079
▁магазина	-11080
▁Ум	-11081
некдо	-11082
ждено	-11083
▁братом	-11084
▁увидишь	-11085
▁лед	-11086
стели	-11087
гана	-11088
▁пита	-11089
▁Автор	-11090
▁местные	-11091
▁Едва	-11092
▁ИНТЕЛЛЕК	-11093
гы	-11094
▁соседей	-11095
кнули	-11096
виду	-11097
гина	-11098
▁кварт	-11099
▁Кэ	-11100
▁шлем	-11101
▁поставила	-11102
▁стри	-11103
езд	-11104
▁тупо	-11105
ous	-11106
▁бить	-11107
▁боти	-11108
▁отклю	-11109
Моск	-11110
▁жре	-11111
▁чис	-11112
▁испугался	-11113
▁небу	-11114
▁Патри	-11115
▁эпизо	-11116
▁ванной	-11117
▁Вен	-11118
слова	-11119
▁Марии	-11120
▁выпил	-11121
▁обойти	-11122
▁доказать	-11123
▁конкурен	-11124
▁листья	-11125
▁действу	-11126
▁источник	-11127
▁Люби	-11128
▁блин	-11129
вида	-11130
▁сынок	-11131
▁обычный	-11132
▁дворец	-11133
▁тишине	-11134
▁основной	-11135
▁программы	-11136
▁читатель	-11137
▁боевой	-11138
▁Лег	-11139
▁повели	-11140
▁герцо	-11141
▁совесть	-11142
лах	-11143
▁ТА	-11144
▁Краси	-11145
▁поступил	-11146
▁смир	-11147
▁конвер	-11148
яла	-11149
стёр	-11150
▁живым	-11151
▁камней	-11152
▁посовето	-11153
▁Константи	-11154
▁взглянула	-11155
▁окружающих	-11156
▁дедушка	-11157
▁контроль	-11158
▁случится	-11159
▁корре	-11160
ляется	-11161
▁любимая	-11162
▁понимали	-11163
бле	-11164
числи	-11165
▁Естественно	-11166
▁родственников	-11167
НАРОД	-11168
▁девчонки	-11169
▁Смо	-11170
детель	-11171
▁развле	-11172
новых	-11173
▁аван	-11174
▁Старик	-11175
▁опере	-11176
▁деньгами	-11177
нав	-11178
цвета	-11179
▁Адам	-11180
▁Коль	-11181
▁Доктор	-11182
▁выходя	-11183
▁невысо	-11184
водили	-11185
▁нежели	-11186
▁корабли	-11187
ровой	-11188
▁Черт	-11189
▁покрасне	-11190
дными	-11191
▁звёз	-11192
▁спрашиваю	-11193
▁интуи	-11194
▁сцену	-11195
СКО	-11196
▁серьёзно	-11197
▁сет	-11198
▁ресни	-11199
▁выбраться	-11200
вью	-11201
ДОЛЬ	-11202
▁готовить	-11203
▁СП	-11204
▁охраны	-11205
▁Теле	-11206
▁лагерь	-11207
СКИ	-11208
▁пьян	-11209
▁материал	-11210
▁городской	-11211
▁должности	-11212
▁ИНТЕЛЛЕКТУАЛЬ	-11213
сона	-11214
▁принесла	-11215
▁общий	-11216
▁Вопрос	-11217
▁высокие	-11218
▁КОМП	-11219
▁Кира	-11220
▁огне	-11221
▁казался	-11222
спа	-11223
▁завтрак	-11224
▁Мит	-11225
чилось	-11226
▁Прежде	-11227
АКТ	-11228
ight	-11229
▁НАСЛЕД	-11230
дика	-11231
нешься	-11232
▁заметив	-11233
▁идиот	-11234
▁вирту	-11235
▁Мини	-11236
▁разнообраз	-11237
ri	-11238
▁замолчал	-11239
▁пье	-11240
▁приводит	-11241
▁совета	-11242
▁надеясь	-11243
▁планета	-11244
▁;;	-11245
▁from	-11246
▁банк	-11247
▁туф	-11248
▁обезья	-11249
▁сани	-11250
▁общежи	-11251
жеб	-11252
тни	-11253
плет	-11254
▁Совета	-11255
▁насчет	-11256
▁мете	-11257
▁живое	-11258
▁суп	-11259
▁повернул	-11260
▁полного	-11261
▁ассо	-11262
▁прор	-11263
▁ужасом	-11264
▁Молодой	-11265
▁сообщение	-11266
▁исчезли	-11267
▁придумать	-11268
▁Шо	-11269
▁считая	-11270
▁лошадей	-11271
▁гвар	-11272
▁список	-11273
▁компози	-11274
▁Слова	-11275
▁надеждой	-11276
няются	-11277
▁явление	-11278
тельством	-11279
фри	-11280
▁выигра	-11281
▁оду	-11282
▁вырос	-11283
▁РУДОЛЬ	-11284
▁Владимира	-11285
▁Разумеется	-11286
вольте	-11287
▁ПЕР	-11288
▁опира	-11289
▁дважды	-11290
тащил	-11291
▁вызвал	-11292
ДАК	-11293
▁богу	-11294
гене	-11295
▁генерала	-11296
▁преследо	-11297
вешь	-11298
▁тел	-11299
▁знание	-11300
▁сестру	-11301
▁подругу	-11302
▁снаружи	-11303
▁чудовищ	-11304
▁мужчиной	-11305
▁обернулась	-11306
▁вытер	-11307
тво	-11308
альному	-11309
▁красные	-11310
▁огнем	-11311
▁лучшее	-11312
▁пояснил	-11313
ore	-11314
▁умел	-11315
▁грязи	-11316
▁Первым	-11317
▁должность	-11318
▁пейза	-11319
▁Настоя	-11320
зум	-11321
чав	-11322
сова	-11323
▁соответственно	-11324
▁надоело	-11325
ковский	-11326
▁беседу	-11327
▁РФ	-11328
▁припа	-11329
▁одиночестве	-11330
емую	-11331
▁RUD	-11332
▁медсе	-11333
▁непод	-11334
▁выполнять	-11335
▁ман	-11336
▁явления	-11337
▁управлять	-11338
тиков	-11339
▁красавица	-11340
▁учился	-11341
ЦИЕЙ	-11342
пке	-11343
▁RUDOL	-11344
стном	-11345
▁последствия	-11346
▁танцу	-11347
▁молодец	-11348
летов	-11349
▁локо	-11350
▁обши	-11351
▁сумки	-11352
▁автомат	-11353
▁красоту	-11354
▁ДИС	-11355
▁Пара	-11356
▁негром	-11357
▁просит	-11358
▁RUDOLF	-11359
ленными	-11360
▁позвал	-11361
▁появления	-11362
БК	-11363
лела	-11364
▁пламя	-11365
▁страшного	-11366
▁пользоваться	-11367
зен	-11368
▁Паша	-11369
▁нево	-11370
▁слух	-11371
рально	-11372
▁экран	-11373
▁надежде	-11374
▁правительства	-11375
ON	-11376
нёт	-11377
хивая	-11378
▁устала	-11379
▁приви	-11380
▁задачи	-11381
▁всад	-11382
▁дочка	-11383
▁отцов	-11384
▁продукты	-11385
▁поско	-11386
▁предложения	-11387
ИН	-11388
▁составе	-11389
▁Врем	-11390
▁вошёл	-11391
порта	-11392
▁Брат	-11393
▁крестья	-11394
▁требуется	-11395
быми	-11396
▁тайны	-11397
крикнул	-11398
▁думают	-11399
▁количества	-11400
гере	-11401
зла	-11402
ковая	-11403
тельностью	-11404
▁существуют	-11405
лл	-11406
▁запя	-11407
▁каблу	-11408
▁оформ	-11409
▁гимна	-11410
парат	-11411
▁выти	-11412
▁спали	-11413
▁аккурат	-11414
▁армия	-11415
▁мальчишка	-11416
▁соответствии	-11417
хватили	-11418
▁проходя	-11419
▁Сами	-11420
шё	-11421
▁придёт	-11422
▁холода	-11423
▁РЕДАК	-11424
▁своеобраз	-11425
▁отстра	-11426
▁озабо	-11427
▁смеха	-11428
меча	-11429
везли	-11430
▁красота	-11431
▁поспешил	-11432
ненных	-11433
▁открывает	-11434
▁губам	-11435
моло	-11436
▁прочие	-11437
ДНЕЙ	-11438
▁аргу	-11439
▁нето	-11440
щах	-11441
▁двенадцать	-11442
▁винов	-11443
▁полиции	-11444
ревно	-11445
▁БИБЛИОГРАФ	-11446
▁пр	-11447
▁перегля	-11448
▁событие	-11449
ланд	-11450
▁кота	-11451
▁дорогие	-11452
▁отправ	-11453
▁выяснилось	-11454
▁еру	-11455
ЖДУНАРОД	-11456
стера	-11457
▁ЧЛЕН	-11458
▁дворя	-11459
ИЗАЦИИ	-11460
▁матро	-11461
▁отступ	-11462
мель	-11463
нимала	-11464
енькой	-11465
▁десяток	-11466
рывно	-11467
▁умею	-11468
▁вагон	-11469
▁Подума	-11470
▁ово	-11471
▁спрашивал	-11472
▁помимо	-11473
▁лучшие	-11474
▁Сон	-11475
▁лаво	-11476
Ли	-11477
▁стрел	-11478
▁ранены	-11479
▁население	-11480
▁ФОРМАТ	-11481
▁Анатолий	-11482
▁зарабаты	-11483
▁засыпа	-11484
Спа	-11485
▁барха	-11486
▁газет	-11487
▁всевозмо	-11488
торе	-11489
▁Иса	-11490
▁разло	-11491
▁госуда	-11492
▁единственным	-11493
▁справиться	-11494
▁ай	-11495
▁ЯЗЫКЕ	-11496
▁прервал	-11497
▁коммента	-11498
чонок	-11499
▁Внутри	-11500
▁Древ	-11501
РОВОМ	-11502
▁Руки	-11503
▁квартира	-11504
▁номера	-11505
▁урок	-11506
▁интеллекту	-11507
нора	-11508
▁хорошим	-11509
▁оставляя	-11510
▁познакомиться	-11511
▁кнопку	-11512
▁ИЗДАТЕЛЬ	-11513
▁АССО	-11514
шались	-11515
▁сильней	-11516
дым	-11517
▁диск	-11518
▁экспер	-11519
▁свобода	-11520
▁воля	-11521
▁Твой	-11522
шению	-11523
▁прямой	-11524
▁проигра	-11525
▁рассмотреть	-11526
▁снизу	-11527
▁голода	-11528
▁учре	-11529
вершен	-11530
ast	-11531
мому	-11532
▁Любви	-11533
▁рассте	-11534
▁СЕРИЯ	-11535
▁НУРЕЕВА	-11536
▁РУДОЛЬФА	-11537
жников	-11538
▁РОССИЙ	-11539
▁субъек	-11540
▁Григорь	-11541
▁выдели	-11542
▁заглянул	-11543
▁демонстра	-11544
▁ошиба	-11545
▁сильным	-11546
▁догадался	-11547
▁настойчиво	-11548
▁члена	-11549
РОВАННЫЙ	-11550
▁НАСЛЕДИИ	-11551
ставила	-11552
▁АКАДЕМИЯ	-11553
▁АКАДЕМИКА	-11554
для	-11555
▁Ленина	-11556
статочно	-11557
▁буль	-11558
▁известный	-11559
▁ИЗДАТЕЛЬСТВА	-11560
щейся	-11561
▁вернусь	-11562
▁изы	-11563
▁бизне	-11564
▁трам	-11565
▁подпры	-11566
▁ИНФОРМАТ	-11567
▁хруп	-11568
▁велел	-11569
▁молод	-11570
▁уклады	-11571
▁Украине	-11572
▁единого	-11573
▁сотвори	-11574
ЖДУНАРОДНАЯ	-11575
▁Запо	-11576
вающее	-11577
▁материала	-11578
▁гно	-11579
▁СИДНЕЙ	-11580
▁АССОЦИИ	-11581
хозя	-11582
▁КОМПАКТ	-11583
▁ФОРМАТА	-11584
▁советской	-11585
рядо	-11586
хоро	-11587
▁РЕДАКЦИЕЙ	-11588
НЫХ	-11589
▁ДИСКЕ	-11590
▁всплы	-11591
▁Первая	-11592
▁Первое	-11593
▁решился	-11594
▁ИНФОРМАТИЗАЦИИ	-11595
▁привле	-11596
▁КОМПАКТНОМ	-11597
▁АССОЦИИРОВАННЫЙ	-11598
▁легла	-11599
▁объяснять	-11600
▁непосредственно	-11601
лететь	-11602
едине	-11603
▁достать	-11604
▁дно	-11605
▁высоких	-11606
▁девчонка	-11607
▁солнцем	-11608
▁некий	-11609
▁категори	-11610
МЕЖДУНАРОДНАЯ	-11611
▁хотим	-11612
держаться	-11613
▁посмотрев	-11614
ровался	-11615
▁сделано	-11616
▁натя	-11617
▁группе	-11618
вики	-11619
пуль	-11620
▁присни	-11621
ври	-11622
▁небольшая	-11623
▁Сим	-11624
▁шевели	-11625
▁Ды	-11626
стит	-11627
▁воо	-11628
менный	-11629
▁бокал	-11630
▁педаго	-11631
▁ангел	-11632
▁отпуска	-11633
ляции	-11634
спол	-11635
▁гвоз	-11636
▁руга	-11637
▁ехали	-11638
▁транспорт	-11639
Ре	-11640
▁встретила	-11641
▁просле	-11642
ТЕ	-11643
▁белым	-11644
▁завода	-11645
вило	-11646
▁Жела	-11647
▁лагеря	-11648
▁фактически	-11649
▁сможем	-11650
▁улицам	-11651
▁гео	-11652
зиа	-11653
▁Бес	-11654
▁реа	-11655
▁распи	-11656
▁разными	-11657
▁безразли	-11658
▁фигуры	-11659
▁БИБЛИОГРАФИЯ	-11660
▁гостя	-11661
▁инвали	-11662
ver	-11663
▁Эк	-11664
▁зайти	-11665
▁детали	-11666
▁окажется	-11667
фет	-11668
▁рога	-11669
▁напоминает	-11670
▁свето	-11671
▁больницы	-11672
ведя	-11673
▁Даль	-11674
ждался	-11675
▁желает	-11676
▁уехать	-11677
▁нету	-11678
▁музыки	-11679
▁интересов	-11680
щенных	-11681
▁длинными	-11682
▁собственные	-11683
▁случиться	-11684
▁Мысли	-11685
▁Огром	-11686
▁слышит	-11687
шках	-11688
▁стати	-11689
вайтесь	-11690
▁артилле	-11691
▁Йо	-11692
рие	-11693
шением	-11694
▁гран	-11695
▁многом	-11696
▁хозяева	-11697
чими	-11698
▁вашим	-11699
ёй	-11700
▁Витя	-11701
▁случая	-11702
мешь	-11703
▁оранже	-11704
нись	-11705
▁карту	-11706
▁ужина	-11707
▁увлек	-11708
▁вали	-11709
▁тотчас	-11710
▁коричне	-11711
▁вашем	-11712
▁подка	-11713
▁секрет	-11714
стает	-11715
▁сделав	-11716
ate	-11717
▁силе	-11718
▁Андрее	-11719
▁чистой	-11720
▁але	-11721
▁тупи	-11722
▁санти	-11723
▁друзьям	-11724
▁глубины	-11725
▁военного	-11726
▁зон	-11727
▁предс	-11728
▁истери	-11729
тельстве	-11730
▁сходить	-11731
▁Правильно	-11732
мка	-11733
ениями	-11734
▁теоре	-11735
▁систем	-11736
▁судить	-11737
▁поморщи	-11738
▁Тело	-11739
▁Мишка	-11740
▁десятки	-11741
▁Прой	-11742
▁преподава	-11743
зацию	-11744
пались	-11745
▁Сдела	-11746
▁смогут	-11747
ленность	-11748
▁принести	-11749
ципли	-11750
▁Игоря	-11751
▁Итали	-11752
▁обманы	-11753
▁старшего	-11754
ченными	-11755
ректор	-11756
▁развернулся	-11757
нар	-11758
▁сплю	-11759
Почему	-11760
▁выдержи	-11761
▁сотрудни	-11762
▁фронта	-11763
▁гиб	-11764
▁тип	-11765
▁разга	-11766
▁всерь	-11767
▁Кей	-11768
▁живого	-11769
▁городом	-11770
▁ББК	-11771
▁ненависть	-11772
▁глухо	-11773
▁спорить	-11774
▁Ган	-11775
дитель	-11776
нодоро	-11777
▁Генна	-11778
▁ощутил	-11779
▁президента	-11780
товый	-11781
▁понравился	-11782
▁або	-11783
▁крыши	-11784
▁глубже	-11785
▁основания	-11786
жиз	-11787
здно	-11788
▁наго	-11789
▁оставила	-11790
ванно	-11791
Хорошо	-11792
▁напар	-11793
▁рассматривать	-11794
деться	-11795
▁зверя	-11796
▁дитя	-11797
▁родных	-11798
▁самолет	-11799
▁отправилась	-11800
▁Бен	-11801
▁сбы	-11802
ine	-11803
▁мотоци	-11804
▁спирт	-11805
▁отврати	-11806
▁просила	-11807
▁страшное	-11808
хнулся	-11809
▁многим	-11810
▁предположить	-11811
▁болью	-11812
▁компанию	-11813
▁фыр	-11814
▁наби	-11815
▁бежит	-11816
▁двинулся	-11817
▁золота	-11818
▁позднее	-11819
▁Зву	-11820
▁сцены	-11821
пустила	-11822
▁родителями	-11823
▁дю	-11824
даря	-11825
▁покое	-11826
коне	-11827
▁философии	-11828
▁Сред	-11829
▁морщи	-11830
МИРОВОМ	-11831
гр	-11832
Когда	-11833
▁Моро	-11834
▁существовать	-11835
▁Кого	-11836
▁Ман	-11837
стную	-11838
▁великой	-11839
▁селе	-11840
▁носил	-11841
▁направления	-11842
▁Семе	-11843
стными	-11844
▁Остальные	-11845
▁портрет	-11846
▁река	-11847
▁Надежда	-11848
▁анекдо	-11849
▁объект	-11850
▁единственное	-11851
▁Всех	-11852
▁помнит	-11853
ens	-11854
тник	-11855
каясь	-11856
▁Надя	-11857
▁Церкви	-11858
физи	-11859
▁Могу	-11860
▁возлюб	-11861
▁команда	-11862
▁идею	-11863
▁прио	-11864
▁защиту	-11865
▁причиной	-11866
▁ох	-11867
разум	-11868
▁гни	-11869
▁услышав	-11870
▁спасение	-11871
▁болит	-11872
▁мусор	-11873
▁закончилась	-11874
▁молодым	-11875
▁император	-11876
▁сумму	-11877
▁вгляды	-11878
▁животное	-11879
▁оглу	-11880
▁отнюдь	-11881
▁кристал	-11882
▁смеяться	-11883
преки	-11884
вающим	-11885
▁ухмыль	-11886
▁художник	-11887
▁игро	-11888
▁крае	-11889
каться	-11890
мби	-11891
▁инопланет	-11892
▁показывая	-11893
▁проли	-11894
▁com	-11895
▁банки	-11896
ult	-11897
▁придержи	-11898
▁pro	-11899
▁юри	-11900
▁святой	-11901
▁РОССИЙСКАЯ	-11902
пании	-11903
▁приказа	-11904
▁Извините	-11905
▁невероятно	-11906
Ме	-11907
▁Хар	-11908
▁миф	-11909
▁немцы	-11910
▁объявил	-11911
▁побольше	-11912
▁вселенной	-11913
ённой	-11914
▁ирони	-11915
▁Работа	-11916
мед	-11917
▁тира	-11918
▁Соф	-11919
ec	-11920
▁осты	-11921
▁включил	-11922
▁хирур	-11923
▁Ангел	-11924
▁куски	-11925
▁следующего	-11926
▁правительство	-11927
▁буржу	-11928
▁прощения	-11929
▁расплы	-11930
▁син	-11931
▁подбо	-11932
▁мусуль	-11933
▁древней	-11934
▁баб	-11935
▁выи	-11936
inistr	-11937
▁обращая	-11938
▁моментально	-11939
▁ведут	-11940
▁рубе	-11941
▁лежать	-11942
▁поезда	-11943
▁итальян	-11944
▁иные	-11945
▁судеб	-11946
▁воспоминаний	-11947
▁Ква	-11948
▁напере	-11949
▁приходят	-11950
▁результаты	-11951
▁содержание	-11952
▁впоследствии	-11953
▁чужих	-11954
▁вдвоем	-11955
▁навы	-11956
▁казалась	-11957
▁возьм	-11958
▁высу	-11959
ber	-11960
▁Вой	-11961
▁Чув	-11962
▁женский	-11963
▁обрадовался	-11964
▁помнить	-11965
▁мнения	-11966
▁страсть	-11967
▁небре	-11968
▁политики	-11969
▁Каза	-11970
▁сомнений	-11971
▁джи	-11972
▁убо	-11973
ствовало	-11974
▁реку	-11975
лему	-11976
▁повсюду	-11977
▁серебри	-11978
центри	-11979
▁Сара	-11980
▁пари	-11981
▁самоубий	-11982
▁проходили	-11983
▁побере	-11984
▁читала	-11985
▁просвет	-11986
▁принцесса	-11987
▁советских	-11988
▁возвращается	-11989
лям	-11990
▁упорно	-11991
▁худ	-11992
▁военные	-11993
тиви	-11994
деква	-11995
▁донес	-11996
пив	-11997
▁дыма	-11998
▁выяснить	-11999
▁спасения	-12000
▁настоящим	-12001
▁располага	-12002
▁und	-12003
▁усо	-12004
▁дочер	-12005
▁владель	-12006
▁парк	-12007
▁баталь	-12008
▁сал	-12009
▁ряды	-12010
▁демонстри	-12011
▁Друзья	-12012
альник	-12013
▁магии	-12014
▁ели	-12015
▁Видно	-12016
тятся	-12017
▁беру	-12018
кв	-12019
▁прибыли	-12020
гн	-12021
▁Собра	-12022
▁сильные	-12023
берт	-12024
блей	-12025
▁фла	-12026
▁происше	-12027
жись	-12028
▁чо	-12029
петь	-12030
▁размеров	-12031
хма	-12032
▁што	-12033
▁Катери	-12034
хими	-12035
Си	-12036
▁пролета	-12037
▁Впер	-12038
▁ответы	-12039
▁доктора	-12040
▁XIX	-12041
сие	-12042
живал	-12043
▁Павла	-12044
▁разду	-12045
▁борьба	-12046
▁Большой	-12047
нел	-12048
▁Дев	-12049
▁переби	-12050
▁больной	-12051
▁слову	-12052
ministr	-12053
▁возникла	-12054
Ин	-12055
▁укреп	-12056
▁подбира	-12057
льную	-12058
▁лепе	-12059
▁оттен	-12060
СТА	-12061
шных	-12062
▁маленьким	-12063
▁администрации	-12064
▁театр	-12065
сик	-12066
ровано	-12067
шенька	-12068
▁Мака	-12069
▁долгое	-12070
▁появится	-12071
пает	-12072
стился	-12073
танный	-12074
видимому	-12075
плу	-12076
▁дверях	-12077
▁предпочита	-12078
▁мост	-12079
▁заключается	-12080
▁секс	-12081
▁интересное	-12082
▁БЫ	-12083
▁жутко	-12084
▁внезап	-12085
село	-12086
▁замо	-12087
▁злой	-12088
▁рыбу	-12089
▁ветром	-12090
▁було	-12091
▁родилась	-12092
▁нужда	-12093
▁спуск	-12094
▁шикар	-12095
▁офицеров	-12096
вляю	-12097
▁отверсти	-12098
НЫЕ	-12099
дено	-12100
зали	-12101
шенная	-12102
▁записи	-12103
ЖЕ	-12104
▁доставля	-12105
▁предков	-12106
▁Виктора	-12107
▁навести	-12108
▁предметы	-12109
▁получа	-12110
▁мирно	-12111
▁белая	-12112
▁Лариса	-12113
▁сорока	-12114
▁борода	-12115
▁отвлек	-12116
▁ядер	-12117
▁коры	-12118
▁ходе	-12119
▁церемо	-12120
▁поспешно	-12121
▁прочитал	-12122
зились	-12123
ванного	-12124
▁надежду	-12125
▁приходили	-12126
▁эффект	-12127
▁знакомы	-12128
▁органов	-12129
▁огромного	-12130
▁Михаила	-12131
лене	-12132
▁Кир	-12133
▁кан	-12134
▁крышу	-12135
▁устроить	-12136
▁внутренней	-12137
ливой	-12138
▁подвод	-12139
▁наедине	-12140
▁ожидания	-12141
▁закричала	-12142
▁побу	-12143
▁жестоко	-12144
▁ржа	-12145
▁оригин	-12146
ern	-12147
▁тихий	-12148
ministration	-12149
▁ОН	-12150
емом	-12151
щенной	-12152
▁модель	-12153
▁отражение	-12154
ляла	-12155
▁продолжить	-12156
▁веки	-12157
▁Оби	-12158
▁плюс	-12159
тена	-12160
▁Твоя	-12161
▁щеке	-12162
▁звука	-12163
▁превратился	-12164
▁Пау	-12165
▁половины	-12166
▁носа	-12167
▁провела	-12168
▁личной	-12169
▁перестали	-12170
▁Стив	-12171
▁особой	-12172
▁дальнейшем	-12173
ind	-12174
▁ужи	-12175
▁каме	-12176
▁целиком	-12177
▁принимает	-12178
▁приле	-12179
▁фамилии	-12180
▁страшный	-12181
▁наука	-12182
▁возразил	-12183
▁Оли	-12184
бился	-12185
▁умол	-12186
▁внешне	-12187
▁забыв	-12188
▁малыш	-12189
▁опаса	-12190
▁кошмар	-12191
▁лову	-12192
▁папи	-12193
▁успеть	-12194
восто	-12195
▁плоть	-12196
▁сердцу	-12197
▁фамилия	-12198
▁иных	-12199
▁четверо	-12200
▁получать	-12201
▁Све	-12202
▁взялся	-12203
▁выстро	-12204
▁Георгий	-12205
▁выглядела	-12206
тировать	-12207
▁поступить	-12208
▁Administration	-12209
▁смя	-12210
▁почи	-12211
▁номе	-12212
▁погода	-12213
тормо	-12214
▁надеялся	-12215
▁дерь	-12216
▁динами	-12217
▁впечатления	-12218
▁плат	-12219
▁Будто	-12220
▁усилия	-12221
▁ex	-12222
▁цветок	-12223
жится	-12224
▁иного	-12225
▁раздел	-12226
▁Эд	-12227
▁ехи	-12228
▁молоко	-12229
▁настоящей	-12230
тимо	-12231
▁сэр	-12232
▁биологи	-12233
▁домик	-12234
▁канал	-12235
▁непривы	-12236
▁покинул	-12237
▁der	-12238
▁золоти	-12239
▁переход	-12240
▁действует	-12241
▁обосно	-12242
▁борт	-12243
▁набе	-12244
▁Посте	-12245
ковского	-12246
▁справед	-12247
▁пищи	-12248
▁участок	-12249
▁занимается	-12250
жью	-12251
▁газо	-12252
▁сладо	-12253
▁WOR	-12254
▁Лео	-12255
▁Хозяин	-12256
▁волнения	-12257
▁Смерть	-12258
▁земель	-12259
▁хорошей	-12260
▁служеб	-12261
▁вдохнов	-12262
▁зеркала	-12263
▁убийство	-12264
▁поцелуй	-12265
▁получает	-12266
▁Фри	-12267
▁Отве	-12268
▁разворачи	-12269
▁закончилось	-12270
нову	-12271
▁зов	-12272
▁разря	-12273
ступают	-12274
▁подраз	-12275
▁отклик	-12276
▁возвраща	-12277
чественной	-12278
джет	-12279
▁жарко	-12280
▁толпе	-12281
▁Мен	-12282
▁ракет	-12283
▁уху	-12284
▁гору	-12285
пустим	-12286
▁предстояло	-12287
▁докумен	-12288
▁Стро	-12289
▁сынов	-12290
▁заново	-12291
▁могуще	-12292
▁правед	-12293
▁WORLD	-12294
▁непонима	-12295
▁виды	-12296
▁одо	-12297
далека	-12298
▁громче	-12299
▁предчув	-12300
▁Сэм	-12301
▁мат	-12302
▁дольше	-12303
▁ставить	-12304
▁магазине	-12305
▁избы	-12306
▁нести	-12307
ани	-12308
штей	-12309
▁стрелять	-12310
▁рос	-12311
▁лягу	-12312
▁уверенность	-12313
▁закру	-12314
▁спры	-12315
Бы	-12316
▁улыбалась	-12317
▁Возвра	-12318
зам	-12319
▁плохого	-12320
▁батю	-12321
▁пуга	-12322
▁привыкли	-12323
▁планету	-12324
Ле	-12325
▁зав	-12326
▁опи	-12327
▁нату	-12328
▁низко	-12329
▁велика	-12330
▁оттол	-12331
▁называл	-12332
▁пытаются	-12333
▁поговорим	-12334
▁Михайлович	-12335
▁исце	-12336
▁изначально	-12337
▁Стоит	-12338
▁столовой	-12339
▁АВСТР	-12340
▁скрыть	-12341
▁луна	-12342
▁фабри	-12343
▁инициати	-12344
▁постанов	-12345
▁Валентина	-12346
▁верит	-12347
▁новость	-12348
▁заявление	-12349
писко	-12350
думали	-12351
▁мебель	-12352
НУ	-12353
▁понравилась	-12354
▁правы	-12355
▁сапоги	-12356
▁надеяться	-12357
▁четвёр	-12358
▁собралась	-12359
▁лагере	-12360
▁горизонт	-12361
ренный	-12362
▁выско	-12363
▁общение	-12364
▁Пого	-12365
▁сыно	-12366
▁дорог	-12367
▁сантимет	-12368
▁справля	-12369
▁накануне	-12370
моз	-12371
▁исключением	-12372
▁Елиза	-12373
▁Одним	-12374
▁сержант	-12375
▁принесли	-12376
▁конь	-12377
мотала	-12378
▁пределы	-12379
бью	-12380
▁Крем	-12381
▁полет	-12382
▁Впереди	-12383
▁оставались	-12384
▁оглянулся	-12385
▁врачи	-12386
▁жестом	-12387
▁даром	-12388
▁творчества	-12389
жени	-12390
▁выскочил	-12391
▁Добро	-12392
гую	-12393
чеб	-12394
щегося	-12395
▁соседи	-12396
летний	-12397
чевать	-12398
▁любим	-12399
▁область	-12400
▁выбрать	-12401
▁опустился	-12402
▁Хру	-12403
▁ожидать	-12404
ждена	-12405
рована	-12406
▁своло	-12407
▁вечность	-12408
▁ё	-12409
виз	-12410
▁рыбы	-12411
Ку	-12412
▁носить	-12413
мато	-12414
▁имеем	-12415
▁печаль	-12416
▁хихи	-12417
ненной	-12418
▁увидит	-12419
▁пропаган	-12420
эк	-12421
дилось	-12422
▁встали	-12423
▁тайну	-12424
дни	-12425
теле	-12426
▁занят	-12427
▁приу	-12428
лится	-12429
честь	-12430
льном	-12431
▁поехать	-12432
▁ел	-12433
тному	-12434
▁глазом	-12435
▁найден	-12436
▁кусочек	-12437
▁Петровна	-12438
СТВ	-12439
▁щеки	-12440
вшимися	-12441
▁прилага	-12442
▁насквозь	-12443
▁Непо	-12444
▁материали	-12445
▁грехи	-12446
▁красной	-12447
▁правую	-12448
▁свободное	-12449
СА	-12450
▁con	-12451
▁чемодан	-12452
▁разрешения	-12453
нские	-12454
▁иу	-12455
лала	-12456
▁тесно	-12457
▁обжи	-12458
▁тварь	-12459
▁отправил	-12460
▁Пожалуйста	-12461
▁безы	-12462
дневно	-12463
махнулся	-12464
▁Леонид	-12465
шным	-12466
▁костюме	-12467
рится	-12468
▁Петя	-12469
▁горах	-12470
▁кулак	-12471
▁регуля	-12472
женными	-12473
▁присло	-12474
▁уголов	-12475
▁Рез	-12476
▁фунда	-12477
▁морской	-12478
вывать	-12479
▁Будем	-12480
▁метрах	-12481
▁познания	-12482
▁причину	-12483
out	-12484
дька	-12485
зел	-12486
▁официан	-12487
йдёт	-12488
мули	-12489
▁отправиться	-12490
бяза	-12491
▁брал	-12492
▁носу	-12493
▁осень	-12494
любо	-12495
▁Святого	-12496
ходов	-12497
▁тяж	-12498
▁очередную	-12499
▁землей	-12500
▁засмеялась	-12501
везти	-12502
ченную	-12503
▁агент	-12504
▁выжить	-12505
▁океан	-12506
▁милости	-12507
▁вспоминал	-12508
совет	-12509
▁фраза	-12510
▁Жизни	-12511
▁склад	-12512
▁ведьма	-12513
▁куртку	-12514
▁растерянно	-12515
▁родственники	-12516
ерусали	-12517
▁цепля	-12518
шины	-12519
▁члены	-12520
▁духовной	-12521
▁черных	-12522
▁товарищи	-12523
СР	-12524
ир	-12525
▁захочет	-12526
▁особенности	-12527
ory	-12528
▁нея	-12529
▁укре	-12530
станции	-12531
▁Дви	-12532
▁пенси	-12533
▁вплоть	-12534
▁счастлива	-12535
▁оси	-12536
▁нано	-12537
▁мыслях	-12538
▁короткий	-12539
▁предложить	-12540
▁происходящее	-12541
▁отряда	-12542
▁коридора	-12543
▁настоящие	-12544
▁необходимость	-12545
тета	-12546
▁прибыл	-12547
▁агресси	-12548
▁гостиной	-12549
жники	-12550
▁устра	-12551
▁воров	-12552
▁каранда	-12553
▁тянет	-12554
лай	-12555
▁Зина	-12556
▁Полина	-12557
▁шепотом	-12558
▁отго	-12559
▁тонкие	-12560
▁очередного	-12561
▁застря	-12562
▁подлин	-12563
▁ненадолго	-12564
▁Шар	-12565
▁парке	-12566
▁террори	-12567
выря	-12568
▁преу	-12569
▁наряд	-12570
▁Санкт	-12571
ЧЕС	-12572
▁кулаком	-12573
бю	-12574
рад	-12575
ённого	-12576
▁чести	-12577
▁начинаю	-12578
▁признался	-12579
▁текста	-12580
▁Виталий	-12581
▁признаться	-12582
▁Алексея	-12583
▁природу	-12584
жут	-12585
▁прила	-12586
▁исходя	-12587
▁тишину	-12588
▁Най	-12589
▁каю	-12590
▁скалы	-12591
▁Вами	-12592
▁поверь	-12593
▁хмыкнул	-12594
ЕЛО	-12595
емчу	-12596
▁фразы	-12597
▁неловко	-12598
▁следующей	-12599
▁Представля	-12600
▁ушей	-12601
▁молитвы	-12602
▁зару	-12603
▁весной	-12604
▁пошевели	-12605
▁Меч	-12606
▁леди	-12607
▁усер	-12608
▁встав	-12609
шедшего	-12610
▁фантасти	-12611
▁густой	-12612
▁вздрогнул	-12613
хнуть	-12614
▁фана	-12615
▁строя	-12616
▁считается	-12617
▁удивления	-12618
нутый	-12619
▁порядо	-12620
▁царство	-12621
▁делается	-12622
▁железнодоро	-12623
▁путешествие	-12624
▁ценности	-12625
▁лома	-12626
▁периодически	-12627
зова	-12628
сался	-12629
▁учить	-12630
▁волнов	-12631
▁благосло	-12632
вне	-12633
гите	-12634
▁порти	-12635
▁цара	-12636
гря	-12637
шного	-12638
▁Удиви	-12639
▁собрал	-12640
против	-12641
▁видать	-12642
▁данных	-12643
▁десятков	-12644
▁Игна	-12645
▁ехал	-12646
▁ник	-12647
еньки	-12648
▁подарил	-12649
▁помя	-12650
▁победу	-12651
▁недостаточно	-12652
беру	-12653
жими	-12654
▁село	-12655
▁уехала	-12656
▁усмехнулась	-12657
▁благополучно	-12658
▁Мое	-12659
▁Вероника	-12660
милась	-12661
▁руководство	-12662
МЕН	-12663
▁христи	-12664
sk	-12665
▁огромную	-12666
▁усилий	-12667
▁Хотелось	-12668
▁сход	-12669
▁ветки	-12670
▁подарки	-12671
▁единственная	-12672
▁механи	-12673
дями	-12674
миться	-12675
▁кусты	-12676
▁документ	-12677
▁заставляет	-12678
▁цари	-12679
▁покон	-12680
▁Отсюда	-12681
▁Божий	-12682
▁гита	-12683
▁приходить	-12684
валил	-12685
▁Пя	-12686
ронт	-12687
жутся	-12688
▁Профе	-12689
▁колхоз	-12690
▁немножко	-12691
▁летать	-12692
филь	-12693
▁Музы	-12694
▁трепет	-12695
▁встречались	-12696
▁плот	-12697
▁нибудь	-12698
▁Кс	-12699
▁ща	-12700
▁рабочий	-12701
▁несомненно	-12702
▁Александрович	-12703
▁обратилась	-12704
ave	-12705
дис	-12706
▁спальню	-12707
:"	-12708
▁Чар	-12709
▁занятие	-12710
▁добиться	-12711
▁романа	-12712
▁потеряли	-12713
▁схватила	-12714
рева	-12715
▁Валя	-12716
▁умный	-12717
▁красным	-12718
▁вернется	-12719
чника	-12720
Москва	-12721
чусь	-12722
▁брату	-12723
▁засте	-12724
▁мужика	-12725
▁военный	-12726
▁закрыть	-12727
жище	-12728
▁Лера	-12729
▁дамы	-12730
▁массы	-12731
▁спустился	-12732
▁годами	-12733
чивается	-12734
▁начинать	-12735
▁предприятия	-12736
ЖИ	-12737
▁высоком	-12738
пей	-12739
▁правды	-12740
▁становились	-12741
▁Уз	-12742
ерен	-12743
ктами	-12744
▁детский	-12745
▁кой	-12746
ницах	-12747
▁торопливо	-12748
▁знакомства	-12749
няясь	-12750
▁поднялись	-12751
▁Изна	-12752
▁Святой	-12753
▁размышления	-12754
ковал	-12755
▁КУЛЬТУРОЛОГИЯ	-12756
▁ДА	-12757
▁жертв	-12758
▁фирмы	-12759
цина	-12760
матери	-12761
▁собственную	-12762
▁вли	-12763
▁волк	-12764
▁открывать	-12765
▁предпринима	-12766
▁ню	-12767
▁срабо	-12768
вленные	-12769
▁нервни	-12770
▁неправильно	-12771
тация	-12772
▁идеологи	-12773
▁атаку	-12774
▁занимались	-12775
делы	-12776
▁летит	-12777
▁интересы	-12778
Му	-12779
▁вско	-12780
▁сладко	-12781
▁слушала	-12782
жило	-12783
далеку	-12784
▁безобра	-12785
авто	-12786
▁годах	-12787
▁созер	-12788
▁черта	-12789
▁взволно	-12790
▁реме	-12791
▁нажал	-12792
▁отпустил	-12793
аз	-12794
▁прину	-12795
▁границу	-12796
▁вправду	-12797
ъем	-12798
снул	-12799
▁Зая	-12800
нутые	-12801
▁кана	-12802
▁целая	-12803
▁Церков	-12804
▁похожий	-12805
▁сообщить	-12806
▁прое	-12807
▁Хе	-12808
▁прене	-12809
▁эпохи	-12810
▁нар	-12811
▁крыше	-12812
▁бесполезно	-12813
▁старались	-12814
шивать	-12815
▁колено	-12816
▁большинства	-12817
▁широкой	-12818
▁ур	-12819
▁спрашивать	-12820
▁Подоб	-12821
▁крупных	-12822
▁Ночь	-12823
▁обладает	-12824
▁интеллиген	-12825
тельна	-12826
▁платья	-12827
▁дивизии	-12828
ваи	-12829
▁Машина	-12830
▁немцев	-12831
▁пройдет	-12832
лоб	-12833
нская	-12834
▁миров	-12835
▁огромных	-12836
▁заса	-12837
▁проходил	-12838
▁соврем	-12839
▁целое	-12840
▁символ	-12841
▁his	-12842
▁слышишь	-12843
▁глупости	-12844
таю	-12845
пред	-12846
▁явился	-12847
▁музыкан	-12848
▁поймать	-12849
чьей	-12850
▁бары	-12851
▁уроки	-12852
▁скажите	-12853
▁темные	-12854
▁местами	-12855
▁позвонила	-12856
▁неподалеку	-12857
▁многочисленные	-12858
ord	-12859
ёма	-12860
▁сед	-12861
▁Иску	-12862
тельны	-12863
▁закончится	-12864
меть	-12865
▁ряда	-12866
тивная	-12867
▁забор	-12868
▁порог	-12869
▁взрослых	-12870
▁Яр	-12871
▁сине	-12872
ствующие	-12873
▁Великого	-12874
ванным	-12875
▁выдохнул	-12876
▁Ева	-12877
тается	-12878
▁просла	-12879
▁концерт	-12880
ваемся	-12881
▁сформи	-12882
▁жива	-12883
▁штука	-12884
▁Наверно	-12885
▁старательно	-12886
▁Видишь	-12887
▁перебра	-12888
▁вплотную	-12889
▁доспе	-12890
▁площадке	-12891
▁нынче	-12892
▁перебил	-12893
▁Король	-12894
▁поймал	-12895
▁сохрани	-12896
▁попросить	-12897
▁зажму	-12898
▁печально	-12899
▁службе	-12900
▁сталки	-12901
▁подхватил	-12902
▁возо	-12903
▁беседы	-12904
ай	-12905
▁СТ	-12906
менной	-12907
спорта	-12908
▁взрослые	-12909
▁полы	-12910
▁шест	-12911
▁тучи	-12912
▁страхом	-12913
вист	-12914
▁трез	-12915
▁духовного	-12916
кову	-12917
▁Лет	-12918
▁темноты	-12919
▁пони	-12920
▁боевых	-12921
▁Понимаешь	-12922
КВД	-12923
рядно	-12924
▁Боги	-12925
понен	-12926
▁заявила	-12927
▁Аг	-12928
сном	-12929
▁Вода	-12930
▁духе	-12931
▁Вене	-12932
▁напрасно	-12933
▁ненависти	-12934
ссис	-12935
▁галакти	-12936
▁местного	-12937
▁возвращения	-12938
чести	-12939
шилась	-12940
▁глаго	-12941
▁глянул	-12942
▁Русь	-12943
▁сигарет	-12944
▁миллионы	-12945
▁улыбнувшись	-12946
▁подробности	-12947
изм	-12948
▁Карл	-12949
▁окку	-12950
▁ножом	-12951
▁крепости	-12952
▁родные	-12953
▁He	-12954
мова	-12955
▁снегу	-12956
▁газета	-12957
▁Чет	-12958
▁слом	-12959
▁проект	-12960
▁законов	-12961
▁Академии	-12962
▁наказание	-12963
таясь	-12964
▁живые	-12965
▁научиться	-12966
▁Силь	-12967
▁Ура	-12968
▁чё	-12969
▁Тон	-12970
▁повре	-12971
▁справедливости	-12972
ации	-12973
▁чёрт	-12974
▁преры	-12975
▁истину	-12976
▁скорей	-12977
▁технику	-12978
ньи	-12979
чан	-12980
▁Вс	-12981
ковую	-12982
▁Ясно	-12983
▁Останови	-12984
▁отдых	-12985
▁двести	-12986
▁извести	-12987
▁писателя	-12988
▁пали	-12989
зю	-12990
только	-12991
▁медаль	-12992
▁связаны	-12993
▁пух	-12994
▁эли	-12995
▁нервы	-12996
▁приём	-12997
▁разлу	-12998
▁проблему	-12999
▁рамках	-13000
▁собственный	-13001
▁Солнца	-13002
▁отвернулся	-13003
▁интри	-13004
▁толпу	-13005
▁точка	-13006
▁получив	-13007
жами	-13008
▁Олега	-13009
▁боятся	-13010
▁Ще	-13011
дётся	-13012
▁успокоить	-13013
▁we	-13014
▁зре	-13015
новым	-13016
▁Ваша	-13017
▁Егип	-13018
▁виски	-13019
▁похло	-13020
▁появление	-13021
беди	-13022
ровались	-13023
▁обычной	-13024
рившись	-13025
▁пронес	-13026
▁Родители	-13027
▁лету	-13028
▁подроб	-13029
▁предше	-13030
▁меняется	-13031
▁ветру	-13032
▁потянулся	-13033
зму	-13034
▁Un	-13035
▁воспользоваться	-13036
▁обиды	-13037
▁факты	-13038
▁жениться	-13039
▁долю	-13040
▁долгие	-13041
▁считала	-13042
нна	-13043
▁проч	-13044
▁выпря	-13045
▁грохо	-13046
▁звать	-13047
▁обязанности	-13048
севдо	-13049
▁разбро	-13050
▁подве	-13051
▁став	-13052
▁цвето	-13053
▁концеп	-13054
▁законам	-13055
▁реакции	-13056
ствуя	-13057
▁фено	-13058
▁дисципли	-13059
▁подтвердил	-13060
НИЕ	-13061
▁промы	-13062
▁становился	-13063
ваку	-13064
▁крикнула	-13065
▁звонил	-13066
▁добавить	-13067
▁вырваться	-13068
▁сопровожда	-13069
▁обрабо	-13070
▁учеников	-13071
▁отло	-13072
дерации	-13073
▁попросту	-13074
▁товарищей	-13075
норм	-13076
хнув	-13077
▁Ильи	-13078
▁народом	-13079
▁отличается	-13080
гнули	-13081
▁пожар	-13082
▁укло	-13083
▁паузу	-13084
▁мужчине	-13085
▁приехать	-13086
▁напряг	-13087
▁стоимо	-13088
▁доволен	-13089
▁соревно	-13090
▁обращаясь	-13091
▁Спокой	-13092
▁чудеса	-13093
▁начались	-13094
мяк	-13095
ющимися	-13096
▁сотрудников	-13097
кот	-13098
чников	-13099
▁воины	-13100
ням	-13101
влять	-13102
▁оболо	-13103
▁поэти	-13104
▁генети	-13105
ида	-13106
кладывать	-13107
▁дря	-13108
▁поре	-13109
ждь	-13110
▁ch	-13111
вающе	-13112
БИ	-13113
▁ой	-13114
▁приятель	-13115
▁вскры	-13116
▁трибу	-13117
тишь	-13118
▁устав	-13119
▁остальным	-13120
▁превосход	-13121
▁рассказывает	-13122
ide	-13123
▁госте	-13124
▁История	-13125
▁привели	-13126
▁представителей	-13127
юн	-13128
▁сжал	-13129
▁придумы	-13130
МУ	-13131
▁уе	-13132
▁are	-13133
▁Боб	-13134
▁чья	-13135
▁органы	-13136
▁стеной	-13137
гнала	-13138
▁вдали	-13139
кался	-13140
почку	-13141
▁ущер	-13142
▁Нико	-13143
▁нахожу	-13144
▁стояло	-13145
▁разъя	-13146
▁смехом	-13147
▁Последний	-13148
▁помы	-13149
▁яз	-13150
▁зарос	-13151
▁сообще	-13152
▁рассмеялась	-13153
▁успех	-13154
▁винтов	-13155
▁комсомо	-13156
▁острове	-13157
▁прижал	-13158
ХА	-13159
нор	-13160
▁слухи	-13161
шенного	-13162
▁сдержа	-13163
▁юности	-13164
▁отправить	-13165
▁уговари	-13166
Лу	-13167
ive	-13168
Они	-13169
▁закончился	-13170
▁Расска	-13171
▁Осо	-13172
▁Деньги	-13173
зай	-13174
▁потряса	-13175
▁прику	-13176
▁проши	-13177
пев	-13178
▁Сева	-13179
▁маски	-13180
▁Знаете	-13181
▁провели	-13182
▁обры	-13183
поте	-13184
шенным	-13185
▁возьму	-13186
▁Республи	-13187
▁греха	-13188
▁Каждо	-13189
▁подушку	-13190
бек	-13191
uries	-13192
▁таблет	-13193
▁направились	-13194
▁договорились	-13195
▁тыс	-13196
телен	-13197
▁враги	-13198
▁принцип	-13199
▁некоторым	-13200
ляют	-13201
вкой	-13202
▁Фло	-13203
▁имело	-13204
▁Роберт	-13205
▁выполнить	-13206
ренные	-13207
▁мастера	-13208
▁назвали	-13209
▁невозмо	-13210
влено	-13211
▁Импе	-13212
▁ремонт	-13213
зме	-13214
▁подво	-13215
▁тобою	-13216
▁казались	-13217
▁неуверенно	-13218
▁проявления	-13219
▁пахнет	-13220
▁сообщила	-13221
Может	-13222
▁поначалу	-13223
▁прони	-13224
▁Архи	-13225
▁блажен	-13226
▁улыбки	-13227
▁женился	-13228
▁отреаги	-13229
новые	-13230
▁герман	-13231
▁среднего	-13232
ид	-13233
▁бил	-13234
▁ушах	-13235
▁народы	-13236
▁красного	-13237
▁сокру	-13238
▁посыла	-13239
вро	-13240
гови	-13241
▁факуль	-13242
▁обнаружили	-13243
дям	-13244
валился	-13245
▁прегра	-13246
▁половине	-13247
▁Царь	-13248
▁рубашку	-13249
▁приговор	-13250
▁свидания	-13251
шом	-13252
▁плече	-13253
льп	-13254
квизи	-13255
▁образе	-13256
▁черного	-13257
ost	-13258
▁вих	-13259
▁злоб	-13260
▁славу	-13261
кту	-13262
▁девочек	-13263
▁Путь	-13264
меялись	-13265
▁стере	-13266
▁модели	-13267
возз	-13268
▁Космо	-13269
▁поэзии	-13270
▁оставалась	-13271
СЬ	-13272
слись	-13273
▁перейти	-13274
▁вспоминая	-13275
що	-13276
пин	-13277
▁звёзд	-13278
▁крупные	-13279
▁наличие	-13280
▁небольшие	-13281
▁занять	-13282
половину	-13283
▁почувствовать	-13284
▁мальчишки	-13285
▁сним	-13286
▁обеих	-13287
вене	-13288
▁Луи	-13289
следу	-13290
▁Изо	-13291
▁осуществи	-13292
▁Ксю	-13293
▁бродя	-13294
▁Этим	-13295
▁расчет	-13296
▁корпуса	-13297
юре	-13298
▁злове	-13299
дс	-13300
частливо	-13301
▁ожидала	-13302
зило	-13303
▁Бри	-13304
▁сегодняш	-13305
▁испугалась	-13306
рафи	-13307
▁идем	-13308
▁крыла	-13309
▁частей	-13310
▁die	-13311
ющееся	-13312
▁океана	-13313
кричал	-13314
▁водку	-13315
жах	-13316
лицы	-13317
▁новому	-13318
▁свято	-13319
▁танец	-13320
▁забудь	-13321
▁искали	-13322
▁разошлись	-13323
ционно	-13324
дых	-13325
▁избира	-13326
▁Петербург	-13327
▁Советского	-13328
▁ядови	-13329
▁выглядеть	-13330
▁Рича	-13331
▁Спаси	-13332
▁захваты	-13333
▁фамилию	-13334
▁обратиться	-13335
▁Вторая	-13336
▁качество	-13337
▁продолжи	-13338
▁выса	-13339
▁целых	-13340
▁обороны	-13341
▁представил	-13342
▁счастливой	-13343
▁инспе	-13344
▁тремя	-13345
▁молчала	-13346
▁Увы	-13347
▁превы	-13348
▁садится	-13349
▁тьма	-13350
ждались	-13351
▁кричала	-13352
▁умом	-13353
▁способна	-13354
рда	-13355
▁простых	-13356
▁колоколь	-13357
▁дошло	-13358
▁безумно	-13359
пий	-13360
▁акцен	-13361
▁Красной	-13362
хова	-13363
бородок	-13364
▁русским	-13365
▁Сказ	-13366
▁видов	-13367
▁метра	-13368
▁переглянулись	-13369
▁Питер	-13370
▁дрожь	-13371
▁безжало	-13372
▁кустар	-13373
▁рюкзак	-13374
▁помогал	-13375
вичем	-13376
▁соседней	-13377
▁Постепенно	-13378
▁профессора	-13379
ьер	-13380
живая	-13381
▁изготов	-13382
▁принципи	-13383
▁требования	-13384
ard	-13385
▁Зай	-13386
▁цвету	-13387
▁твоему	-13388
▁следить	-13389
атра	-13390
шилось	-13391
▁сунду	-13392
▁простите	-13393
▁пренебре	-13394
ениях	-13395
тивным	-13396
▁сверка	-13397
▁поскорее	-13398
▁интересует	-13399
▁Нов	-13400
▁причу	-13401
▁бараба	-13402
▁Игра	-13403
▁превратилась	-13404
нтом	-13405
▁уходил	-13406
▁лучшего	-13407
▁Centuries	-13408
▁институте	-13409
▁чашку	-13410
▁темноту	-13411
ливого	-13412
голу	-13413
▁отом	-13414
▁Нового	-13415
зив	-13416
▁Досто	-13417
▁опустила	-13418
▁звезд	-13419
▁предъя	-13420
▁погибли	-13421
▁покрови	-13422
▁Анато	-13423
▁фигуру	-13424
ep	-13425
рут	-13426
▁бюро	-13427
▁чёрный	-13428
▁Людмила	-13429
▁аппарат	-13430
▁Крым	-13431
▁сменя	-13432
▁пробира	-13433
▁нисколько	-13434
▁вло	-13435
▁голод	-13436
▁устой	-13437
▁неважно	-13438
▁конкретно	-13439
вору	-13440
▁общее	-13441
▁буй	-13442
▁выбе	-13443
▁поплы	-13444
▁сжима	-13445
▁обычного	-13446
▁зима	-13447
▁пламени	-13448
▁ЦК	-13449
▁Анаста	-13450
▁Точнее	-13451
кнувшись	-13452
▁эм	-13453
▁Замет	-13454
▁ногам	-13455
▁новыми	-13456
▁услыша	-13457
▁Иерусали	-13458
▁авторитет	-13459
▁чрезвычайно	-13460
▁многочисленных	-13461
▁дико	-13462
ссор	-13463
▁услышали	-13464
▁обидно	-13465
▁Отца	-13466
▁яйца	-13467
▁чувствуешь	-13468
▁возникло	-13469
▁do	-13470
▁штаб	-13471
▁войско	-13472
▁тысячу	-13473
▁прокуро	-13474
крики	-13475
точка	-13476
ционер	-13477
▁простор	-13478
▁живем	-13479
▁большее	-13480
▁величай	-13481
тельнее	-13482
▁пытаюсь	-13483
▁физически	-13484
▁Ог	-13485
▁Стало	-13486
▁лежат	-13487
▁физио	-13488
▁удачно	-13489
▁Мыс	-13490
▁нера	-13491
▁ответственности	-13492
▁Уда	-13493
▁свечи	-13494
▁самыми	-13495
▁строки	-13496
▁черная	-13497
▁судорожно	-13498
мку	-13499
терна	-13500
▁полки	-13501
▁племени	-13502
▁появляются	-13503
▁держала	-13504
▁детской	-13505
▁документов	-13506
зина	-13507
▁ДЕНЬ	-13508
▁капу	-13509
▁испыта	-13510
▁едет	-13511
▁видны	-13512
▁пещеры	-13513
▁бабы	-13514
читали	-13515
ющуюся	-13516
▁настав	-13517
▁нога	-13518
дитесь	-13519
▁бывал	-13520
▁независи	-13521
▁Кристина	-13522
сущ	-13523
▁ab	-13524
▁увлека	-13525
▁база	-13526
▁дракон	-13527
▁прим	-13528
▁выходил	-13529
▁хвостом	-13530
▁смеялись	-13531
▁дове	-13532
▁проле	-13533
▁Такого	-13534
▁незаме	-13535
▁прогло	-13536
▁рабочего	-13537
▁автомобиля	-13538
пав	-13539
▁Запад	-13540
читав	-13541
▁озада	-13542
▁белыми	-13543
ГБ	-13544
Раз	-13545
верно	-13546
▁Вади	-13547
▁Семё	-13548
▁Вернее	-13549
▁ТЕ	-13550
▁Суще	-13551
▁пищу	-13552
своему	-13553
▁манипу	-13554
▁Худо	-13555
▁тумбо	-13556
▁идио	-13557
▁супруга	-13558
АТЬ	-13559
нты	-13560
▁шеф	-13561
▁факе	-13562
▁всматри	-13563
▁красотой	-13564
▁отсутствия	-13565
▁скульп	-13566
ШИ	-13567
димся	-13568
кия	-13569
▁прого	-13570
▁позволил	-13571
▁привезли	-13572
▁Хм	-13573
▁Храни	-13574
▁среде	-13575
▁грамот	-13576
▁тетя	-13577
рены	-13578
▁ребенком	-13579
▁изменился	-13580
▁поняв	-13581
▁возможностей	-13582
▁куро	-13583
▁пету	-13584
▁Никаких	-13585
▁свадьбы	-13586
рованного	-13587
маз	-13588
▁сестрой	-13589
Су	-13590
▁дивана	-13591
▁университета	-13592
▁разговаривали	-13593
▁Ани	-13594
▁привел	-13595
▁подбородок	-13596
▁инженер	-13597
▁пас	-13598
▁шоро	-13599
▁горит	-13600
▁совеща	-13601
хнули	-13602
вленно	-13603
щало	-13604
▁аспе	-13605
▁выши	-13606
▁крыша	-13607
▁издалека	-13608
ther	-13609
▁усталость	-13610
▁яркий	-13611
▁причинам	-13612
▁единственной	-13613
рает	-13614
▁беды	-13615
▁человеческий	-13616
гию	-13617
щалось	-13618
▁Впервые	-13619
▁данного	-13620
▁перепи	-13621
▁внутреннего	-13622
чивым	-13623
▁портре	-13624
▁демократи	-13625
гиб	-13626
▁Галина	-13627
▁подняв	-13628
▁пустя	-13629
▁удары	-13630
▁поигра	-13631
▁гармони	-13632
▁личного	-13633
▁властью	-13634
▁вопросительно	-13635
бус	-13636
шков	-13637
▁рабы	-13638
▁десятка	-13639
▁скрылся	-13640
фф	-13641
приим	-13642
ear	-13643
▁all	-13644
ющаяся	-13645
▁капита	-13646
▁Предста	-13647
▁Фер	-13648
▁встря	-13649
ire	-13650
▁резо	-13651
▁набере	-13652
ворец	-13653
▁шоссе	-13654
▁велико	-13655
▁библиотеки	-13656
▁плачет	-13657
▁пойдём	-13658
ьями	-13659
▁мане	-13660
▁набрал	-13661
▁уходят	-13662
рованная	-13663
ЕНИЯ	-13664
пьем	-13665
▁Фин	-13666
▁горько	-13667
▁литературе	-13668
▁осенью	-13669
▁лестницы	-13670
▁встречаться	-13671
евны	-13672
▁главная	-13673
▁испыт	-13674
фт	-13675
нори	-13676
▁брюки	-13677
▁родного	-13678
циали	-13679
▁поход	-13680
▁стихов	-13681
▁золотые	-13682
▁Дум	-13683
▁галсту	-13684
▁читает	-13685
▁истреби	-13686
▁Гера	-13687
▁Ch	-13688
тины	-13689
▁коже	-13690
▁отча	-13691
▁Ночью	-13692
▁смену	-13693
▁слабость	-13694
▁повел	-13695
▁серые	-13696
▁листок	-13697
▁ударом	-13698
▁отдельных	-13699
▁произойти	-13700
▁создавать	-13701
циям	-13702
▁отсе	-13703
▁находилось	-13704
ГИ	-13705
ish	-13706
ённым	-13707
▁Куль	-13708
▁пребывания	-13709
твори	-13710
▁загру	-13711
▁пальчи	-13712
▁неопредел	-13713
▁PO	-13714
диоз	-13715
▁залез	-13716
▁Англии	-13717
▁стр	-13718
центра	-13719
▁светя	-13720
▁любопытством	-13721
стин	-13722
▁лом	-13723
кторов	-13724
▁i	-13725
▁Наи	-13726
редко	-13727
▁коля	-13728
uc	-13729
▁Звез	-13730
▁пира	-13731
▁Помнишь	-13732
▁отчетливо	-13733
РАН	-13734
▁Джор	-13735
▁занятий	-13736
▁данным	-13737
▁торжественно	-13738
влены	-13739
▁детство	-13740
▁кормить	-13741
▁рады	-13742
▁стремление	-13743
▁вов	-13744
новый	-13745
▁либе	-13746
возгла	-13747
▁королева	-13748
▁собственное	-13749
жишь	-13750
▁Подой	-13751
▁ванную	-13752
▁пообещал	-13753
▁свойства	-13754
▁подраздел	-13755
кинув	-13756
НИЯ	-13757
▁Позже	-13758
▁простым	-13759
▁изрядно	-13760
▁кораблей	-13761
▁императора	-13762
деш	-13763
▁головами	-13764
хую	-13765
▁sh	-13766
▁Соба	-13767
▁бедня	-13768
▁балкон	-13769
▁Эту	-13770
▁привела	-13771
▁защитить	-13772
вающую	-13773
▁Свято	-13774
▁щекам	-13775
▁Абсолю	-13776
▁глоток	-13777
▁пожала	-13778
крикнула	-13779
стар	-13780
▁тамо	-13781
▁одинаково	-13782
бург	-13783
▁древние	-13784
▁выражения	-13785
▁обслужи	-13786
▁отметил	-13787
▁продать	-13788
▁СУ	-13789
▁вече	-13790
▁газету	-13791
▁задачу	-13792
▁испытания	-13793
▁задумалась	-13794
льд	-13795
скала	-13796
▁колы	-13797
▁впря	-13798
▁Семен	-13799
▁готово	-13800
▁образы	-13801
▁снаб	-13802
▁собаку	-13803
▁подозри	-13804
▁отдельные	-13805
завтра	-13806
▁запас	-13807
▁ничуть	-13808
▁высокая	-13809
▁телевид	-13810
▁ящи	-13811
▁главы	-13812
ГУ	-13813
чёр	-13814
▁ЛИ	-13815
▁трава	-13816
▁продолжа	-13817
знание	-13818
▁сумер	-13819
▁камеру	-13820
▁подрост	-13821
▁отдыхать	-13822
тема	-13823
▁en	-13824
▁Зла	-13825
▁желанием	-13826
▁свету	-13827
▁зацепи	-13828
▁великих	-13829
▁однозна	-13830
▁прошлой	-13831
▁поступки	-13832
льда	-13833
▁целей	-13834
▁закончить	-13835
▁последовал	-13836
▁попол	-13837
▁фронт	-13838
▁созерца	-13839
▁троих	-13840
▁бешен	-13841
▁чудом	-13842
▁оптими	-13843
чике	-13844
▁перекры	-13845
▁насмешли	-13846
▁тьмы	-13847
▁евреи	-13848
▁Вероятно	-13849
▁небольшого	-13850
лели	-13851
енными	-13852
▁стороной	-13853
▁бежали	-13854
▁просматри	-13855
▁Юно	-13856
▁мент	-13857
жечь	-13858
зают	-13859
▁короче	-13860
▁кай	-13861
▁узнав	-13862
▁картин	-13863
▁Андрю	-13864
▁Товари	-13865
▁сумо	-13866
▁побежали	-13867
▁регулярно	-13868
РОВ	-13869
▁такти	-13870
▁мышления	-13871
▁облом	-13872
▁яркие	-13873
▁совершил	-13874
▁умеют	-13875
▁Другие	-13876
ort	-13877
шедших	-13878
▁зашли	-13879
▁бойцов	-13880
▁плана	-13881
▁вопросу	-13882
тари	-13883
▁сижу	-13884
▁хули	-13885
риллиан	-13886
▁дворца	-13887
▁умирать	-13888
▁глубокий	-13889
▁присл	-13890
шер	-13891
▁сара	-13892
▁сказку	-13893
нча	-13894
▁Бре	-13895
Госпо	-13896
ливых	-13897
ствую	-13898
краси	-13899
кнулись	-13900
▁Валерий	-13901
▁Израиль	-13902
▁вый	-13903
▁записа	-13904
▁звонить	-13905
▁золотом	-13906
▁Основ	-13907
▁извра	-13908
▁убрать	-13909
▁бутер	-13910
▁штаба	-13911
▁офиц	-13912
▁теме	-13913
▁нанес	-13914
зость	-13915
▁выпали	-13916
тографи	-13917
▁платок	-13918
▁вытаски	-13919
▁мечом	-13920
▁паспорт	-13921
лком	-13922
тают	-13923
▁джинсы	-13924
▁журнала	-13925
менов	-13926
▁учения	-13927
▁отправили	-13928
опа	-13929
▁Кам	-13930
▁Лан	-13931
▁молчать	-13932
▁взмах	-13933
▁наступил	-13934
коман	-13935
▁апте	-13936
▁взросло	-13937
▁общи	-13938
приятий	-13939
▁невозму	-13940
▁первыми	-13941
▁железной	-13942
▁находясь	-13943
▁средство	-13944
hen	-13945
ванное	-13946
▁освет	-13947
▁бумагу	-13948
▁налево	-13949
▁защищать	-13950
▁знакомым	-13951
рр	-13952
▁местности	-13953
▁Апо	-13954
▁Арс	-13955
▁цену	-13956
▁направо	-13957
▁представители	-13958
▁гроб	-13959
▁мужиков	-13960
▁человеческие	-13961
свет	-13962
▁Крис	-13963
▁наход	-13964
▁Господин	-13965
▁фан	-13966
▁СМИ	-13967
▁ден	-13968
▁трой	-13969
▁расст	-13970
ong	-13971
НОВ	-13972
▁Хан	-13973
▁зиму	-13974
▁родо	-13975
▁спинку	-13976
▁крыльями	-13977
гл	-13978
▁коню	-13979
шинство	-13980
ас	-13981
правда	-13982
▁Возле	-13983
▁Причём	-13984
▁взглянуть	-13985
▁курса	-13986
▁дороже	-13987
▁местом	-13988
▁ГА	-13989
русски	-13990
▁Около	-13991
▁содержимое	-13992
▁Шта	-13993
▁понес	-13994
▁мыслью	-13995
▁построить	-13996
▁изображение	-13997
▁цена	-13998
▁богаты	-13999
чине	-14000
скри	-14001
чило	-14002
▁маку	-14003
▁легкий	-14004
▁высоким	-14005
▁твоем	-14006
▁пишут	-14007
▁замени	-14008
▁родила	-14009
▁Катю	-14010
▁Тяже	-14011
▁снис	-14012
▁гипно	-14013
ненного	-14014
▁Еванге	-14015
▁подпол	-14016
▁показывать	-14017
▁And	-14018
▁встречал	-14019
▁долгожда	-14020
▁испытывал	-14021
вес	-14022
▁мудрость	-14023
▁участников	-14024
▁клы	-14025
▁выводу	-14026
▁поступать	-14027
▁эми	-14028
▁Луна	-14029
▁бегать	-14030
TOR	-14031
уса	-14032
▁доброго	-14033
▁боялись	-14034
▁наверху	-14035
▁поцеловала	-14036
all	-14037
▁Ваши	-14038
▁брак	-14039
▁истина	-14040
▁присела	-14041
▁III	-14042
▁почер	-14043
▁насеко	-14044
▁Спросил	-14045
▁простые	-14046
▁Дядя	-14047
▁написала	-14048
▁черту	-14049
▁вражде	-14050
ПЫ	-14051
шара	-14052
▁послушно	-14053
▁скоман	-14054
▁продолжение	-14055
▁Библии	-14056
▁свежий	-14057
▁половиной	-14058
▁вздо	-14059
▁взрыва	-14060
▁падения	-14061
▁привело	-14062
▁обстоятельств	-14063
▁избу	-14064
руп	-14065
душе	-14066
▁Часто	-14067
▁притяги	-14068
▁Бай	-14069
▁жизне	-14070
▁собран	-14071
▁Дю	-14072
▁сада	-14073
шы	-14074
ившись	-14075
▁вывер	-14076
▁проститу	-14077
топ	-14078
рями	-14079
хара	-14080
обходи	-14081
▁разбо	-14082
▁Зло	-14083
влена	-14084
▁открыли	-14085
▁Ель	-14086
▁Майкл	-14087
▁гибель	-14088
▁инду	-14089
▁надё	-14090
▁снов	-14091
▁научился	-14092
▁физиономи	-14093
▁Хол	-14094
▁замечал	-14095
▁НКВД	-14096
▁изъя	-14097
▁Алина	-14098
▁жиль	-14099
▁предлагаю	-14100
▁сиде	-14101
▁Часть	-14102
▁безусловно	-14103
▁поднимается	-14104
най	-14105
сые	-14106
мело	-14107
▁ворон	-14108
▁отделение	-14109
ерархи	-14110
▁закружи	-14111
▁УК	-14112
▁животные	-14113
дельник	-14114
▁отвечала	-14115
▁Сай	-14116
▁запись	-14117
▁окнами	-14118
▁чёрные	-14119
▁отключи	-14120
воды	-14121
▁попытка	-14122
▁уснул	-14123
▁улыбке	-14124
▁очарова	-14125
▁случаев	-14126
▁Универ	-14127
▁некому	-14128
▁приходила	-14129
▁араб	-14130
▁защит	-14131
▁ткани	-14132
▁целях	-14133
▁любая	-14134
▁отрез	-14135
▁сунул	-14136
▁Благодар	-14137
шись	-14138
▁поездки	-14139
▁наполовину	-14140
▁политической	-14141
фра	-14142
▁небольшое	-14143
▁современных	-14144
▁щедро	-14145
▁подумав	-14146
▁ищут	-14147
водила	-14148
▁напле	-14149
▁выбирать	-14150
▁прекрасная	-14151
▁Яна	-14152
▁this	-14153
▁плет	-14154
▁солнечный	-14155
▁замира	-14156
▁Валентин	-14157
▁удержать	-14158
▁желал	-14159
▁добрым	-14160
▁замке	-14161
▁мировозз	-14162
▁задал	-14163
▁училище	-14164
▁эволюции	-14165
▁шеи	-14166
▁сило	-14167
▁основные	-14168
▁следовательно	-14169
вика	-14170
▁плевать	-14171
▁цита	-14172
▁Черно	-14173
▁Скажите	-14174
ах	-14175
коном	-14176
олето	-14177
пления	-14178
▁удивлённо	-14179
нены	-14180
▁замерла	-14181
▁Единственное	-14182
▁совершить	-14183
▁основы	-14184
▁Василия	-14185
▁принимал	-14186
чительно	-14187
▁длинной	-14188
▁бессмысленно	-14189
ome	-14190
вель	-14191
▁остаются	-14192
▁полета	-14193
▁отделения	-14194
▁:)	-14195
▁корм	-14196
▁танцевать	-14197
стику	-14198
▁ставит	-14199
▁жёст	-14200
хотя	-14201
▁Валера	-14202
▁расписа	-14203
близи	-14204
сались	-14205
▁любимую	-14206
▁зачастую	-14207
лие	-14208
▁вмеши	-14209
▁кошки	-14210
▁начинали	-14211
▁армей	-14212
ВЕТ	-14213
▁государственной	-14214
кою	-14215
▁лидер	-14216
▁элементар	-14217
▁сомневался	-14218
нейший	-14219
▁раздумы	-14220
▁участия	-14221
▁господина	-14222
нту	-14223
▁КПСС	-14224
▁покая	-14225
▁Баба	-14226
▁посмотрели	-14227
нутой	-14228
▁угрю	-14229
ere	-14230
▁плохой	-14231
докс	-14232
▁каре	-14233
▁музей	-14234
▁крохот	-14235
тузиа	-14236
▁Женщины	-14237
▁младший	-14238
▁следствие	-14239
▁разглядывая	-14240
▁неи	-14241
▁заши	-14242
▁тере	-14243
▁печень	-14244
▁инструмент	-14245
▁***	-14246
▁тщет	-14247
!),	-14248
алей	-14249
▁Коли	-14250
▁мали	-14251
▁Мастер	-14252
▁родная	-14253
снула	-14254
▁упира	-14255
▁Можешь	-14256
▁Роза	-14257
▁Понял	-14258
▁интен	-14259
▁мрачно	-14260
▁старин	-14261
▁помогли	-14262
▁ртом	-14263
Ой	-14264
▁Иу	-14265
▁враже	-14266
▁лаборатории	-14267
▁художника	-14268
▁рынке	-14269
▁неблаго	-14270
▁большому	-14271
▁происхождения	-14272
▁массу	-14273
▁пойдёт	-14274
▁ствол	-14275
▁замеша	-14276
▁просве	-14277
тна	-14278
ненным	-14279
▁заорал	-14280
▁сигареты	-14281
▁терми	-14282
вляется	-14283
▁Анны	-14284
▁подождать	-14285
▁продуктов	-14286
▁еги	-14287
▁влез	-14288
▁весна	-14289
▁Одни	-14290
▁больных	-14291
▁попри	-14292
▁Оксана	-14293
▁вопреки	-14294
▁нередко	-14295
край	-14296
стана	-14297
▁ведро	-14298
▁плеча	-14299
▁рухнул	-14300
▁снегом	-14301
▁Следова	-14302
▁контакт	-14303
лену	-14304
дину	-14305
▁горле	-14306
▁листо	-14307
++++++++	-14308
▁бережно	-14309
▁открытым	-14310
лесо	-14311
▁губерна	-14312
▁виновата	-14313
▁тяжелый	-14314
еро	-14315
▁гад	-14316
▁Гарри	-14317
▁ошибку	-14318
▁столицы	-14319
▁Согласно	-14320
види	-14321
▁круга	-14322
▁позор	-14323
▁стиле	-14324
▁забрал	-14325
▁счастливым	-14326
▁святых	-14327
стического	-14328
▁левую	-14329
▁покор	-14330
▁представляешь	-14331
дый	-14332
▁исправить	-14333
важа	-14334
лышав	-14335
▁произошла	-14336
ans	-14337
▁оже	-14338
▁меру	-14339
ЛЮ	-14340
▁повяз	-14341
▁всякое	-14342
▁старуха	-14343
▁приносит	-14344
ндра	-14345
▁хохот	-14346
▁вспомнив	-14347
тря	-14348
ствию	-14349
▁Сила	-14350
▁тошно	-14351
▁воскресенье	-14352
▁мешать	-14353
▁встрево	-14354
▁светлые	-14355
▁втро	-14356
▁дурац	-14357
▁пахло	-14358
▁решет	-14359
▁закрыв	-14360
▁охотно	-14361
▁чистый	-14362
▁студентов	-14363
▁спокойствие	-14364
▁ныр	-14365
▁наре	-14366
▁Честно	-14367
▁заговор	-14368
обе	-14369
шени	-14370
▁Моисе	-14371
▁звонка	-14372
▁ордена	-14373
▁мелких	-14374
▁Неза	-14375
плом	-14376
▁вину	-14377
▁прошлый	-14378
▁доброволь	-14379
стань	-14380
▁мала	-14381
▁кален	-14382
▁карте	-14383
▁печали	-14384
▁прозви	-14385
щица	-14386
▁Мила	-14387
▁ребён	-14388
▁бюджет	-14389
▁ведо	-14390
▁русская	-14391
▁необходимые	-14392
▁сай	-14393
▁выка	-14394
▁Тара	-14395
▁ресторане	-14396
▁закре	-14397
▁времён	-14398
▁сказка	-14399
▁Америке	-14400
▁несправедливо	-14401
ната	-14402
▁цепи	-14403
▁упраж	-14404
▁убедить	-14405
лило	-14406
ass	-14407
▁so	-14408
▁Вяче	-14409
▁помогу	-14410
▁Сквозь	-14411
▁следовать	-14412
тенок	-14413
▁третьей	-14414
▁вздрогнула	-14415
▁сжа	-14416
стром	-14417
▁человеческое	-14418
ара	-14419
▁бир	-14420
▁облик	-14421
▁отвле	-14422
▁случаи	-14423
▁ежедневно	-14424
▁затылок	-14425
▁четырёх	-14426
▁частенько	-14427
ссом	-14428
стел	-14429
поста	-14430
▁вах	-14431
втори	-14432
▁повсе	-14433
▁решив	-14434
▁возвращался	-14435
хих	-14436
жества	-14437
тябре	-14438
▁старушка	-14439
▁ях	-14440
▁Зоя	-14441
сность	-14442
▁писала	-14443
▁холодным	-14444
▁КАК	-14445
▁началом	-14446
▁попытаться	-14447
▁игнори	-14448
▁старую	-14449
▁принялись	-14450
▁достоинства	-14451
▁переживания	-14452
▁упасть	-14453
▁завы	-14454
▁затяги	-14455
▁заставила	-14456
▁пир	-14457
▁проры	-14458
▁играла	-14459
▁прекрасной	-14460
ндии	-14461
▁совпа	-14462
▁краски	-14463
▁Лука	-14464
▁открыв	-14465
▁покачала	-14466
ином	-14467
бность	-14468
▁проше	-14469
▁нейтра	-14470
▁принца	-14471
ЕНИЕ	-14472
чиками	-14473
▁природой	-14474
ip	-14475
▁кад	-14476
▁Воль	-14477
▁жажду	-14478
▁Возьми	-14479
▁выли	-14480
ust	-14481
вица	-14482
цело	-14483
▁тайна	-14484
КОВ	-14485
▁Тамара	-14486
▁статью	-14487
▁координа	-14488
▁замечательно	-14489
Ду	-14490
▁обща	-14491
▁слёз	-14492
▁приключения	-14493
",-	-14494
бат	-14495
ренной	-14496
▁вспле	-14497
▁робко	-14498
▁рынок	-14499
▁средневе	-14500
▁держаться	-14501
кора	-14502
▁заняты	-14503
▁сжим	-14504
▁выводы	-14505
▁Библиоте	-14506
▁предатель	-14507
готов	-14508
еньше	-14509
▁хрен	-14510
▁патру	-14511
▁мечтала	-14512
▁простить	-14513
▁румя	-14514
▁покачи	-14515
▁Солда	-14516
хий	-14517
▁Диана	-14518
▁рацион	-14519
▁задержа	-14520
▁засы	-14521
▁насле	-14522
Че	-14523
летней	-14524
▁изыска	-14525
▁служит	-14526
▁присутствии	-14527
чтобы	-14528
▁башни	-14529
TORY	-14530
▁HIS	-14531
жаясь	-14532
▁станешь	-14533
▁известных	-14534
рела	-14535
▁Рожде	-14536
▁выяс	-14537
▁рыча	-14538
▁градусов	-14539
▁отпра	-14540
▁высшей	-14541
▁совпад	-14542
▁прочитать	-14543
▁Николаевна	-14544
▁эксперимент	-14545
рило	-14546
▁штор	-14547
▁напряжение	-14548
▁обстоятельствах	-14549
нечка	-14550
▁образа	-14551
ват	-14552
▁устоя	-14553
▁раздви	-14554
▁маленькое	-14555
зик	-14556
мки	-14557
▁сняла	-14558
▁килограм	-14559
▁предупредил	-14560
▁схо	-14561
▁вкусно	-14562
▁канику	-14563
крат	-14564
▁Клю	-14565
▁девяно	-14566
▁Дья	-14567
▁боку	-14568
▁газете	-14569
▁наблюдения	-14570
▁избра	-14571
▁католи	-14572
▁любимым	-14573
▁университет	-14574
▁выки	-14575
▁поде	-14576
▁резер	-14577
▁переку	-14578
▁псевдо	-14579
▁сопри	-14580
▁Слыш	-14581
▁поделать	-14582
▁приобрет	-14583
ступая	-14584
▁HISTORY	-14585
ньем	-14586
▁внутренних	-14587
▁произведение	-14588
▁руководством	-14589
▁des	-14590
▁капю	-14591
▁наступила	-14592
▁Мэри	-14593
▁сотен	-14594
▁Другой	-14595
ертво	-14596
▁чаем	-14597
ненько	-14598
ниям	-14599
▁выстрел	-14600
▁желаю	-14601
лица	-14602
▁ужасе	-14603
▁организация	-14604
▁Тю	-14605
▁обстановку	-14606
ровке	-14607
▁буркнул	-14608
▁архитек	-14609
мите	-14610
▁лишний	-14611
▁черепа	-14612
▁эксплу	-14613
сказать	-14614
▁плохое	-14615
ould	-14616
ённое	-14617
▁депре	-14618
▁Узна	-14619
▁дяди	-14620
▁полоса	-14621
пии	-14622
бери	-14623
▁Луч	-14624
▁дереву	-14625
▁собеседника	-14626
iz	-14627
леть	-14628
▁мисс	-14629
▁камеры	-14630
▁умирает	-14631
▁путешествия	-14632
▁ухмыльнулся	-14633
▁неоднократно	-14634
▁Нев	-14635
▁возмутился	-14636
▁хлы	-14637
Спасибо	-14638
стере	-14639
▁броне	-14640
▁жемчу	-14641
▁нехотя	-14642
▁Маг	-14643
▁живы	-14644
▁безмол	-14645
▁поймет	-14646
▁поворот	-14647
▁обид	-14648
▁указ	-14649
▁путём	-14650
▁разным	-14651
▁программу	-14652
▁выло	-14653
▁парню	-14654
▁разоз	-14655
▁замечает	-14656
▁игре	-14657
▁Екатерина	-14658
пустив	-14659
ровича	-14660
▁думай	-14661
▁тонкой	-14662
▁официально	-14663
зея	-14664
▁дочерью	-14665
▁потребу	-14666
▁бросились	-14667
▁лениво	-14668
▁беззабо	-14669
▁комбина	-14670
ственному	-14671
▁негромко	-14672
▁странная	-14673
▁атом	-14674
руются	-14675
▁попере	-14676
▁городах	-14677
▁посредством	-14678
ДР	-14679
▁руль	-14680
▁фантазии	-14681
▁провозгла	-14682
▁потем	-14683
▁больни	-14684
▁Мин	-14685
▁знаки	-14686
▁трубы	-14687
▁отделя	-14688
▁команде	-14689
▁современного	-14690
ЦА	-14691
▁сё	-14692
▁Лав	-14693
▁гарни	-14694
▁гряду	-14695
▁линию	-14696
▁вытяну	-14697
▁развра	-14698
▁убедиться	-14699
la	-14700
▁испра	-14701
▁потро	-14702
▁частично	-14703
оо	-14704
▁Галя	-14705
▁аристо	-14706
▁уселся	-14707
▁суждено	-14708
▁дадут	-14709
▁корабле	-14710
▁халат	-14711
▁уехали	-14712
глубь	-14713
▁вечной	-14714
▁третьем	-14715
AT	-14716
▁сози	-14717
▁обере	-14718
▁узнаю	-14719
▁авторов	-14720
▁научной	-14721
▁снимать	-14722
▁вины	-14723
▁несет	-14724
▁огоро	-14725
▁осмотрел	-14726
▁монастырь	-14727
▁присутствующих	-14728
▁Лер	-14729
▁доброе	-14730
▁моби	-14731
щенная	-14732
▁глазки	-14733
▁напряжения	-14734
▁ветви	-14735
▁пд	-14736
алан	-14737
▁дрова	-14738
▁купила	-14739
▁проспе	-14740
▁пропасть	-14741
▁отро	-14742
говорили	-14743
ненная	-14744
▁ввиду	-14745
▁ода	-14746
▁растения	-14747
ff	-14748
редине	-14749
▁писателей	-14750
▁Авгу	-14751
▁серо	-14752
▁любых	-14753
▁особенного	-14754
▁СВО	-14755
▁творчество	-14756
летом	-14757
▁вдаль	-14758
▁удаля	-14759
▁расследо	-14760
▁парнем	-14761
▁каст	-14762
▁напе	-14763
▁туфли	-14764
▁Благодаря	-14765
ЧЕ	-14766
денти	-14767
несло	-14768
▁брон	-14769
▁вокз	-14770
▁откло	-14771
▁Герман	-14772
▁незнакомец	-14773
▁обращаться	-14774
ик	-14775
ляю	-14776
ферен	-14777
▁глубокой	-14778
▁млн	-14779
▁всюду	-14780
▁испан	-14781
▁силуэт	-14782
▁любопытство	-14783
▁подниматься	-14784
▁молока	-14785
нося	-14786
мра	-14787
▁Кое	-14788
летает	-14789
▁пристро	-14790
▁Всевы	-14791
▁исход	-14792
▁уснуть	-14793
▁помещении	-14794
▁режим	-14795
▁перемен	-14796
▁улицах	-14797
▁сеть	-14798
▁взгляде	-14799
▁молчит	-14800
▁Брю	-14801
▁скру	-14802
▁круго	-14803
▁неизбежно	-14804
▁величе	-14805
парта	-14806
▁особых	-14807
▁соседа	-14808
▁показали	-14809
▁солнышко	-14810
▁терпеливо	-14811
▁интересного	-14812
▁Него	-14813
▁Союз	-14814
▁Таких	-14815
▁Первые	-14816
▁поехала	-14817
жете	-14818
▁обря	-14819
▁бодро	-14820
▁пачку	-14821
▁интона	-14822
▁разговоров	-14823
▁устанавли	-14824
▁дерз	-14825
дана	-14826
лест	-14827
▁лаби	-14828
▁твари	-14829
▁просту	-14830
ug	-14831
▁змеи	-14832
▁сможете	-14833
▁существовании	-14834
▁Счита	-14835
▁курить	-14836
влял	-14837
▁боишься	-14838
летий	-14839
▁коллекти	-14840
▁перехода	-14841
▁сиденье	-14842
тинен	-14843
▁помните	-14844
лками	-14845
менем	-14846
▁валь	-14847
▁условий	-14848
▁следующую	-14849
▁выдал	-14850
▁пациен	-14851
▁глупость	-14852
хнет	-14853
▁опустив	-14854
▁предвку	-14855
▁составляет	-14856
риф	-14857
▁энтузиа	-14858
теров	-14859
хватило	-14860
▁ослепи	-14861
▁рабочие	-14862
▁открытия	-14863
▁собственным	-14864
ВЕР	-14865
▁опоз	-14866
▁воевать	-14867
▁наклонился	-14868
▁коме	-14869
▁гнева	-14870
▁выходили	-14871
нкой	-14872
▁Тех	-14873
▁мадам	-14874
▁тарелку	-14875
▁равнодуш	-14876
▁печать	-14877
▁коллеги	-14878
тивную	-14879
▁творится	-14880
▁sp	-14881
▁чаю	-14882
▁свыше	-14883
▁вглубь	-14884
▁любому	-14885
▁фальши	-14886
ПУ	-14887
ньки	-14888
силась	-14889
▁практике	-14890
▁облегчением	-14891
▁собираться	-14892
▁Пти	-14893
▁Взгляд	-14894
лясь	-14895
▁Радо	-14896
▁импуль	-14897
▁выпуска	-14898
▁пассажиров	-14899
▁пятидесяти	-14900
▁ведёт	-14901
▁грехов	-14902
▁самолета	-14903
IE	-14904
бало	-14905
▁папы	-14906
▁поди	-14907
▁соску	-14908
▁грудью	-14909
▁послан	-14910
▁пустые	-14911
▁представляла	-14912
валы	-14913
▁занял	-14914
рке	-14915
вными	-14916
▁Жанна	-14917
▁госпожа	-14918
▁находит	-14919
▁направлен	-14920
ковое	-14921
▁Большо	-14922
▁добрая	-14923
▁интервью	-14924
▁поделиться	-14925
▁ложе	-14926
▁трол	-14927
▁едем	-14928
▁цены	-14929
револю	-14930
▁зубов	-14931
▁стремя	-14932
▁Институ	-14933
▁огур	-14934
▁счастливо	-14935
▁государств	-14936
▁обнаружила	-14937
воя	-14938
▁Туда	-14939
▁Женька	-14940
▁уважением	-14941
▁радоваться	-14942
▁происходящего	-14943
▁Джен	-14944
▁Вряд	-14945
▁шага	-14946
▁помогла	-14947
▁вставать	-14948
▁запросто	-14949
▁оставлять	-14950
▁дыша	-14951
ial	-14952
▁лучшем	-14953
▁поблед	-14954
▁держали	-14955
▁родитель	-14956
▁Волк	-14957
▁щеку	-14958
▁обычные	-14959
▁проволо	-14960
▁сообщения	-14961
▁хла	-14962
▁приш	-14963
▁личное	-14964
▁веришь	-14965
берг	-14966
▁проводили	-14967
▁выгляды	-14968
▁простого	-14969
▁Син	-14970
▁корни	-14971
▁Старый	-14972
▁милосер	-14973
▁структуры	-14974
Ско	-14975
▁каба	-14976
▁Влады	-14977
▁Серафи	-14978
▁шё	-14979
▁зату	-14980
▁Фелик	-14981
▁Горь	-14982
▁бывших	-14983
▁Грей	-14984
▁вампир	-14985
▁клетки	-14986
▁костер	-14987
▁лесо	-14988
▁блага	-14989
▁заста	-14990
▁кроше	-14991
▁Трудно	-14992
▁высоте	-14993
▁дожидаясь	-14994
▁Голу	-14995
▁нереши	-14996
ая	-14997
стку	-14998
▁небрежно	-14999
фий	-15000
▁Мило	-15001
▁привыкла	-15002
кало	-15003
▁выпла	-15004
▁кувши	-15005
▁выходят	-15006
▁сыновей	-15007
▁бесшу	-15008
▁поправля	-15009
▁работников	-15010
хро	-15011
▁полё	-15012
▁управление	-15013
▁Вос	-15014
▁палату	-15015
▁ПРА	-15016
▁ауди	-15017
▁Афана	-15018
▁желаний	-15019
▁прожить	-15020
▁состава	-15021
▁заглянуть	-15022
▁ула	-15023
▁языки	-15024
▁позабо	-15025
бят	-15026
юми	-15027
▁Призна	-15028
▁познакомились	-15029
нологи	-15030
▁Лау	-15031
▁пош	-15032
▁изби	-15033
▁молодё	-15034
▁взды	-15035
▁сбли	-15036
▁рыбал	-15037
Се	-15038
▁орке	-15039
▁пада	-15040
▁плеч	-15041
▁приказы	-15042
▁ярости	-15043
▁Австра	-15044
▁покру	-15045
▁сильное	-15046
зона	-15047
▁ростом	-15048
тельству	-15049
▁поднимая	-15050
▁размером	-15051
▁закону	-15052
▁страницы	-15053
ДЫ	-15054
рассу	-15055
▁Пона	-15056
▁РС	-15057
▁безот	-15058
▁застре	-15059
жительно	-15060
▁обязанно	-15061
▁видимости	-15062
▁уп	-15063
▁бесстра	-15064
▁кожей	-15065
▁пропу	-15066
▁сестре	-15067
▁победить	-15068
▁зме	-15069
▁поти	-15070
▁являлся	-15071
▁Маль	-15072
▁Эмма	-15073
▁арен	-15074
▁колеба	-15075
вз	-15076
▁персон	-15077
▁пролет	-15078
▁волнуйся	-15079
ne	-15080
▁легкой	-15081
▁окружи	-15082
▁проника	-15083
▁преобразо	-15084
НЯ	-15085
чику	-15086
▁начнут	-15087
▁ощущал	-15088
▁восприятия	-15089
стах	-15090
▁дна	-15091
полно	-15092
▁бедра	-15093
▁случаю	-15094
сторожно	-15095
▁остановки	-15096
▁контр	-15097
▁открытой	-15098
▁разговаривал	-15099
ренных	-15100
▁вызов	-15101
▁слушай	-15102
разуме	-15103
▁манер	-15104
▁набор	-15105
▁опомни	-15106
▁Лиз	-15107
дья	-15108
▁позе	-15109
▁сует	-15110
▁Тео	-15111
▁козы	-15112
▁очеви	-15113
▁очевид	-15114
▁Гон	-15115
▁Неме	-15116
▁Тома	-15117
▁асфальт	-15118
▁огляделся	-15119
▁ате	-15120
вавший	-15121
просто	-15122
▁стою	-15123
ваемый	-15124
ваемые	-15125
евский	-15126
▁народе	-15127
▁стремится	-15128
▁носит	-15129
▁плечах	-15130
БА	-15131
▁пели	-15132
▁настроения	-15133
▁Мет	-15134
▁стуле	-15135
▁Подожди	-15136
▁праздно	-15137
▁последнем	-15138
деров	-15139
▁титу	-15140
▁прожил	-15141
▁механиз	-15142
▁ав	-15143
чьих	-15144
▁торо	-15145
ненное	-15146
▁вступ	-15147
▁улыбаться	-15148
▁Фон	-15149
▁домам	-15150
▁пойму	-15151
лея	-15152
▁вн	-15153
ваемых	-15154
ходишь	-15155
▁Федерации	-15156
мне	-15157
▁коробку	-15158
▁грави	-15159
▁порога	-15160
ob	-15161
▁Марго	-15162
▁встретили	-15163
▁среды	-15164
▁вашему	-15165
▁достичь	-15166
▁местной	-15167
Кра	-15168
вна	-15169
ницами	-15170
▁корпус	-15171
▁уце	-15172
▁нелепо	-15173
▁тратить	-15174
▁фотографию	-15175
▁злости	-15176
▁лишних	-15177
▁помощник	-15178
▁поколение	-15179
вою	-15180
много	-15181
▁положить	-15182
▁опустилась	-15183
▁прекрасное	-15184
▁рассказывали	-15185
▁отказа	-15186
▁Америки	-15187
▁пополам	-15188
мотра	-15189
▁звёзды	-15190
▁репети	-15191
▁Род	-15192
▁влады	-15193
▁et	-15194
▁кипя	-15195
▁покупать	-15196
шное	-15197
▁Окон	-15198
▁придут	-15199
▁пустоту	-15200
комна	-15201
▁отчёт	-15202
▁лаборато	-15203
▁Ефи	-15204
▁прове	-15205
▁лесной	-15206
▁зеркале	-15207
▁заглу	-15208
▁влияния	-15209
етами	-15210
▁муску	-15211
▁сжи	-15212
мович	-15213
▁двум	-15214
▁принёс	-15215
▁автобуса	-15216
▁множества	-15217
▁огромными	-15218
[...]
